unsigned char model_feedforward_2_tflite[] = {
 0x1c, 0x00, 0x00, 0x00, 0x54, 0x46, 0x4c, 0x33, 0x14, 0x00, 0x20, 0x00,
 0x1c, 0x00, 0x18, 0x00, 0x14, 0x00, 0x10, 0x00, 0x0c, 0x00, 0x00, 0x00,
 0x08, 0x00, 0x04, 0x00, 0x14, 0x00, 0x00, 0x00, 0x1c, 0x00, 0x00, 0x00,
 0x98, 0x00, 0x00, 0x00, 0xf0, 0x00, 0x00, 0x00, 0xa0, 0x2a, 0x00, 0x00,
 0xb0, 0x2a, 0x00, 0x00, 0x14, 0x31, 0x00, 0x00, 0x03, 0x00, 0x00, 0x00,
 0x01, 0x00, 0x00, 0x00, 0x10, 0x00, 0x00, 0x00, 0x00, 0x00, 0x0a, 0x00,
 0x10, 0x00, 0x0c, 0x00, 0x08, 0x00, 0x04, 0x00, 0x0a, 0x00, 0x00, 0x00,
 0x0c, 0x00, 0x00, 0x00, 0x1c, 0x00, 0x00, 0x00, 0x3c, 0x00, 0x00, 0x00,
 0x0f, 0x00, 0x00, 0x00, 0x73, 0x65, 0x72, 0x76, 0x69, 0x6e, 0x67, 0x5f,
 0x64, 0x65, 0x66, 0x61, 0x75, 0x6c, 0x74, 0x00, 0x01, 0x00, 0x00, 0x00,
 0x04, 0x00, 0x00, 0x00, 0x90, 0xff, 0xff, 0xff, 0x0a, 0x00, 0x00, 0x00,
 0x04, 0x00, 0x00, 0x00, 0x08, 0x00, 0x00, 0x00, 0x6f, 0x75, 0x74, 0x70,
 0x75, 0x74, 0x5f, 0x30, 0x00, 0x00, 0x00, 0x00, 0x01, 0x00, 0x00, 0x00,
 0x04, 0x00, 0x00, 0x00, 0x46, 0xd5, 0xff, 0xff, 0x04, 0x00, 0x00, 0x00,
 0x0e, 0x00, 0x00, 0x00, 0x6b, 0x65, 0x72, 0x61, 0x73, 0x5f, 0x74, 0x65,
 0x6e, 0x73, 0x6f, 0x72, 0x5f, 0x38, 0x00, 0x00, 0x02, 0x00, 0x00, 0x00,
 0x34, 0x00, 0x00, 0x00, 0x04, 0x00, 0x00, 0x00, 0xdc, 0xff, 0xff, 0xff,
 0x0d, 0x00, 0x00, 0x00, 0x04, 0x00, 0x00, 0x00, 0x13, 0x00, 0x00, 0x00,
 0x43, 0x4f, 0x4e, 0x56, 0x45, 0x52, 0x53, 0x49, 0x4f, 0x4e, 0x5f, 0x4d,
 0x45, 0x54, 0x41, 0x44, 0x41, 0x54, 0x41, 0x00, 0x08, 0x00, 0x0c, 0x00,
 0x08, 0x00, 0x04, 0x00, 0x08, 0x00, 0x00, 0x00, 0x0c, 0x00, 0x00, 0x00,
 0x04, 0x00, 0x00, 0x00, 0x13, 0x00, 0x00, 0x00, 0x6d, 0x69, 0x6e, 0x5f,
 0x72, 0x75, 0x6e, 0x74, 0x69, 0x6d, 0x65, 0x5f, 0x76, 0x65, 0x72, 0x73,
 0x69, 0x6f, 0x6e, 0x00, 0x0e, 0x00, 0x00, 0x00, 0xac, 0x29, 0x00, 0x00,
 0xa4, 0x29, 0x00, 0x00, 0x94, 0x27, 0x00, 0x00, 0x74, 0x27, 0x00, 0x00,
 0x64, 0x07, 0x00, 0x00, 0xd4, 0x06, 0x00, 0x00, 0xc4, 0x05, 0x00, 0x00,
 0xb4, 0x00, 0x00, 0x00, 0xac, 0x00, 0x00, 0x00, 0xa4, 0x00, 0x00, 0x00,
 0x9c, 0x00, 0x00, 0x00, 0x94, 0x00, 0x00, 0x00, 0x74, 0x00, 0x00, 0x00,
 0x04, 0x00, 0x00, 0x00, 0xfa, 0xd5, 0xff, 0xff, 0x04, 0x00, 0x00, 0x00,
 0x60, 0x00, 0x00, 0x00, 0x10, 0x00, 0x00, 0x00, 0x00, 0x00, 0x00, 0x00,
 0x08, 0x00, 0x0e, 0x00, 0x08, 0x00, 0x04, 0x00, 0x08, 0x00, 0x00, 0x00,
 0x10, 0x00, 0x00, 0x00, 0x24, 0x00, 0x00, 0x00, 0x00, 0x00, 0x06, 0x00,
 0x08, 0x00, 0x04, 0x00, 0x06, 0x00, 0x00, 0x00, 0x04, 0x00, 0x00, 0x00,
 0x00, 0x00, 0x00, 0x00, 0x0c, 0x00, 0x18, 0x00, 0x14, 0x00, 0x10, 0x00,
 0x0c, 0x00, 0x04, 0x00, 0x0c, 0x00, 0x00, 0x00, 0x35, 0xbc, 0x6e, 0xbf,
 0x87, 0xfc, 0xe8, 0x38, 0x02, 0x00, 0x00, 0x00, 0x02, 0x00, 0x00, 0x00,
 0x04, 0x00, 0x00, 0x00, 0x06, 0x00, 0x00, 0x00, 0x32, 0x2e, 0x31, 0x38,
 0x2e, 0x30, 0x00, 0x00, 0x66, 0xd6, 0xff, 0xff, 0x04, 0x00, 0x00, 0x00,
 0x10, 0x00, 0x00, 0x00, 0x31, 0x2e, 0x35, 0x2e, 0x30, 0x00, 0x00, 0x00,
 0x00, 0x00, 0x00, 0x00, 0x00, 0x00, 0x00, 0x00, 0xd0, 0xd0, 0xff, 0xff,
 0xd4, 0xd0, 0xff, 0xff, 0xd8, 0xd0, 0xff, 0xff, 0xdc, 0xd0, 0xff, 0xff,
 0x92, 0xd6, 0xff, 0xff, 0x04, 0x00, 0x00, 0x00, 0x00, 0x05, 0x00, 0x00,
 0x8e, 0x3e, 0xbb, 0xbd, 0x53, 0x93, 0x96, 0xbe, 0xb2, 0x93, 0x0f, 0xbe,
 0xd8, 0x69, 0x11, 0x3d, 0x54, 0xb5, 0x69, 0x3e, 0x68, 0x55, 0xd0, 0x3d,
 0x44, 0xc4, 0x5c, 0xbd, 0x80, 0x1d, 0xbd, 0xbb, 0xa4, 0xc6, 0x50, 0x3e,
 0xd0, 0x98, 0xa5, 0x3c, 0xc6, 0x7d, 0xe6, 0x3d, 0x5b, 0x64, 0xd6, 0x3d,
 0x5e, 0xd7, 0xb8, 0xbc, 0x9f, 0xb6, 0x07, 0xc1, 0x63, 0xa4, 0xf9, 0x3f,
 0x05, 0xae, 0x41, 0xbe, 0x4c, 0x38, 0x93, 0x3d, 0xd2, 0x6f, 0x3b, 0xbe,
 0x74, 0x9b, 0xa6, 0xbd, 0x90, 0x10, 0x46, 0x3d, 0xe1, 0xd1, 0xf0, 0xbc,
 0x7d, 0xd5, 0x8d, 0x3c, 0x66, 0x28, 0xf4, 0xbc, 0x2a, 0x97, 0x27, 0x3f,
 0x13, 0x6f, 0x31, 0xbf, 0x52, 0x94, 0x5f, 0xbe, 0xb2, 0xce, 0x17, 0xbe,
 0x44, 0x61, 0xef, 0x3d, 0xf8, 0xab, 0x88, 0x3e, 0xfa, 0x2c, 0x28, 0xbe,
 0x6c, 0x4b, 0xa6, 0x3e, 0x53, 0xb1, 0x5c, 0x3e, 0x9d, 0x51, 0xe6, 0xbd,
 0x05, 0x76, 0x8d, 0xc0, 0x00, 0x14, 0x9f, 0xbf, 0x98, 0x9b, 0x37, 0x3e,
 0xf5, 0xe2, 0x1f, 0xbe, 0x70, 0xe9, 0x5c, 0x3d, 0xa8, 0xf0, 0x4d, 0x3e,
 0xc4, 0x0a, 0x5f, 0x3e, 0x48, 0xd0, 0x58, 0xbe, 0x70, 0x30, 0x88, 0xbe,
 0x10, 0x6c, 0x10, 0x3e, 0xbe, 0x07, 0x94, 0x3e, 0x58, 0x7e, 0x76, 0x3d,
 0x41, 0xff, 0x1d, 0xbe, 0xa8, 0xe5, 0xf2, 0xbd, 0xa0, 0x65, 0x94, 0x3c,
 0xc4, 0x5b, 0x4b, 0xbd, 0xe0, 0x38, 0x2e, 0xbc, 0xd2, 0xe5, 0x26, 0x3d,
 0xd7, 0x84, 0x3e, 0x3c, 0x6e, 0x08, 0x2a, 0xbd, 0x11, 0x18, 0xa1, 0x3f,
 0xea, 0x46, 0x3b, 0xbf, 0xc0, 0x38, 0x16, 0x3c, 0xbf, 0x38, 0x87, 0xbe,
 0xdf, 0x67, 0x2a, 0xbe, 0xea, 0xa8, 0x4b, 0xbe, 0x38, 0x4f, 0x58, 0xbe,
 0xa4, 0x6b, 0x27, 0x3e, 0xc0, 0x9d, 0x18, 0x3c, 0xba, 0xd7, 0x20, 0xbe,
 0x70, 0xae, 0xad, 0xbc, 0x6a, 0x03, 0x6a, 0xbe, 0x02, 0xbd, 0x23, 0x3e,
 0x0e, 0x92, 0xaf, 0xbd, 0x62, 0x50, 0x7d, 0xbe, 0x16, 0xf6, 0x24, 0xbe,
 0x98, 0xf6, 0x25, 0x3d, 0x6e, 0xcd, 0x99, 0x3d, 0x6e, 0xdf, 0x67, 0x3b,
 0xa4, 0xa5, 0xa6, 0xbc, 0x8c, 0xd4, 0x03, 0x3f, 0xb4, 0x97, 0x24, 0xbf,
 0x58, 0xe3, 0x61, 0x3e, 0x6d, 0x3a, 0x96, 0xbe, 0xe3, 0x70, 0x1b, 0xbe,
 0x62, 0x0d, 0x92, 0x3e, 0x0e, 0x0a, 0x01, 0xbe, 0xa3, 0xaf, 0x54, 0x3e,
 0x38, 0xa6, 0xbc, 0x3e, 0x5a, 0xfd, 0xaa, 0xbe, 0x4d, 0xc8, 0x38, 0x3f,
 0x12, 0x96, 0x68, 0x3f, 0x87, 0x5d, 0x30, 0xbe, 0xc4, 0x9c, 0x63, 0xbe,
 0x3b, 0xe6, 0x75, 0xbe, 0x20, 0xba, 0x48, 0x3c, 0xc0, 0x61, 0xed, 0x3b,
 0x59, 0xa2, 0x58, 0xbe, 0x9b, 0x2e, 0x42, 0xbe, 0x2f, 0x9b, 0x14, 0x3e,
 0x66, 0x01, 0x49, 0x3e, 0x1e, 0xd3, 0x01, 0xbe, 0x26, 0x0c, 0x1b, 0x3e,
 0x18, 0x1d, 0x3b, 0x3d, 0xc2, 0x7e, 0x55, 0xbe, 0x03, 0x9a, 0x44, 0xbe,
 0xc5, 0x74, 0x8a, 0xbe, 0x00, 0xac, 0xd6, 0x39, 0xbf, 0x64, 0x95, 0xbe,
 0xf2, 0x12, 0x6c, 0xbe, 0xac, 0x6a, 0x73, 0x3e, 0xc8, 0x04, 0x10, 0xbe,
 0x00, 0x8b, 0xf0, 0x3a, 0x34, 0x0d, 0x78, 0xbe, 0x60, 0x93, 0x1b, 0xbc,
 0xf0, 0x45, 0x8a, 0x3e, 0x13, 0xed, 0x2d, 0xbe, 0x68, 0xa6, 0x1f, 0xba,
 0x2e, 0xd1, 0xa4, 0x3e, 0xc9, 0x88, 0xf4, 0xbd, 0xe8, 0x22, 0xad, 0xc0,
 0xa1, 0xcc, 0xad, 0xbe, 0x20, 0x2b, 0x47, 0x3d, 0xc8, 0xdc, 0x6f, 0xbd,
 0xb1, 0x62, 0x89, 0xbe, 0x3c, 0x0f, 0x61, 0xbd, 0x26, 0xf9, 0x93, 0x3e,
 0x7d, 0xab, 0x8f, 0xbe, 0x28, 0x69, 0x72, 0xbe, 0x4e, 0x25, 0x5d, 0xbe,
 0xd6, 0xc3, 0x22, 0x3e, 0x0c, 0xad, 0x03, 0xbe, 0x0c, 0x0c, 0x72, 0xbe,
 0xf0, 0xdf, 0xd7, 0xbd, 0x88, 0xa5, 0x86, 0xbe, 0xdc, 0x52, 0x39, 0xbe,
 0x68, 0x04, 0xb6, 0x3d, 0xfb, 0xa8, 0x91, 0xbe, 0x29, 0x80, 0x76, 0xbe,
 0x44, 0xa9, 0xce, 0x3d, 0x3c, 0xe8, 0x2b, 0xbe, 0x4b, 0xd6, 0x8c, 0xbe,
 0x66, 0x55, 0x09, 0xbe, 0xb9, 0xe5, 0xc9, 0x3c, 0x7a, 0xed, 0x51, 0xbd,
 0xa7, 0x99, 0x9d, 0x3f, 0xa9, 0xaf, 0x32, 0xbf, 0xae, 0x92, 0x31, 0x3e,
 0xce, 0xad, 0x15, 0xbe, 0xc8, 0xe1, 0xe0, 0xbd, 0x8e, 0x75, 0x37, 0x3e,
 0x9c, 0xfd, 0x3a, 0xbe, 0x48, 0x47, 0x2b, 0xbe, 0x03, 0xc8, 0x69, 0xbe,
 0x02, 0xd0, 0x45, 0x3e, 0x4d, 0x18, 0x65, 0x3e, 0x49, 0x04, 0xa8, 0x3d,
 0x9e, 0x54, 0x92, 0x3e, 0xb9, 0xf6, 0x76, 0xbe, 0x74, 0x80, 0x47, 0xbe,
 0x7e, 0xb5, 0x84, 0x3e, 0x9c, 0xe8, 0x58, 0xbe, 0x61, 0x2e, 0xc8, 0x3d,
 0xfc, 0xad, 0x58, 0xbd, 0x8d, 0xe7, 0x12, 0x3d, 0xf0, 0xe5, 0xc8, 0x3e,
 0x6f, 0x6c, 0x77, 0xbe, 0x42, 0x08, 0xd4, 0x3e, 0x96, 0xea, 0x06, 0x3f,
 0xfc, 0xd5, 0x1f, 0xbe, 0x66, 0x0d, 0x8a, 0xc0, 0xd1, 0x62, 0x43, 0xbe,
 0xa4, 0x4c, 0x8a, 0x3e, 0x67, 0x2c, 0x89, 0xbe, 0x90, 0x1e, 0x88, 0x3e,
 0x97, 0x9d, 0x14, 0x3e, 0xc5, 0x0e, 0x38, 0x3d, 0x3e, 0x87, 0x90, 0xbe,
 0xda, 0xc6, 0x7d, 0xbe, 0x68, 0x71, 0x17, 0x3d, 0xa4, 0x70, 0xb6, 0x3d,
 0x60, 0x84, 0x89, 0xbe, 0x0e, 0x1b, 0x07, 0x3e, 0x97, 0x4d, 0xf6, 0x3e,
 0xff, 0x12, 0xac, 0xbd, 0x6e, 0x33, 0x34, 0xc0, 0xac, 0x58, 0x60, 0xbe,
 0x98, 0xcf, 0xe3, 0x3d, 0xc0, 0x6d, 0x85, 0xbe, 0x5e, 0x14, 0xdd, 0xbd,
 0x26, 0x37, 0x9f, 0xbd, 0x69, 0x05, 0x48, 0xbe, 0x63, 0x5b, 0xc1, 0x3d,
 0xb0, 0xb8, 0xe8, 0x3d, 0x2d, 0x0c, 0x00, 0xbe, 0x04, 0xf2, 0x2e, 0xc0,
 0xc9, 0x76, 0x8e, 0xbf, 0x8e, 0x66, 0x22, 0x3e, 0x48, 0x5f, 0x63, 0xbd,
 0xc0, 0xd2, 0xb4, 0x3c, 0x5b, 0x10, 0x1e, 0xbe, 0xb4, 0xa5, 0x66, 0x3e,
 0x39, 0xbe, 0x5b, 0x3e, 0x84, 0x1c, 0x88, 0x3e, 0x53, 0xa7, 0x9f, 0xbd,
 0x23, 0x2b, 0xac, 0xc0, 0xd7, 0xff, 0xf2, 0x3d, 0x24, 0x5e, 0xaa, 0x3d,
 0xf8, 0x6f, 0x91, 0xbe, 0xa0, 0x3d, 0x51, 0xbe, 0x76, 0x19, 0x85, 0x3e,
 0xfa, 0xc1, 0x7a, 0xbe, 0x9b, 0xa2, 0xa4, 0xbe, 0x7a, 0x19, 0x4e, 0xbe,
 0xd1, 0x26, 0x49, 0x3e, 0xfa, 0x5c, 0xd4, 0x3d, 0xe0, 0xcb, 0x62, 0xbe,
 0xe2, 0xe7, 0x0c, 0xbe, 0x2c, 0xaf, 0x6e, 0x3e, 0x32, 0x4a, 0x42, 0xbe,
 0x73, 0x9e, 0xda, 0x3e, 0xc7, 0x49, 0xf2, 0x3f, 0x64, 0x20, 0x44, 0x3e,
 0xf6, 0xd7, 0x77, 0xbe, 0x80, 0x77, 0x29, 0xbb, 0x95, 0xac, 0x92, 0xbe,
 0x64, 0x4b, 0x5c, 0x3e, 0x59, 0x11, 0xa2, 0xbe, 0xfb, 0x79, 0x27, 0xbe,
 0x76, 0x2a, 0x17, 0x3e, 0xb1, 0x0b, 0x35, 0xbd, 0xe5, 0x24, 0xff, 0xba,
 0x08, 0x4f, 0xbc, 0xbd, 0x02, 0x48, 0xa4, 0xbd, 0x9f, 0xca, 0x7f, 0xbe,
 0x80, 0xa6, 0x17, 0x3e, 0xa8, 0xd9, 0x17, 0xbd, 0x20, 0xd3, 0x2d, 0xbe,
 0xa0, 0x85, 0xf5, 0xbc, 0x06, 0xc6, 0x7c, 0xbe, 0xac, 0xb3, 0x34, 0xbe,
 0xf6, 0x31, 0x2b, 0x3e, 0xf2, 0x63, 0x35, 0xbe, 0x45, 0xf8, 0x15, 0xbd,
 0x64, 0xb1, 0xdb, 0xbc, 0x0b, 0xa8, 0x19, 0xc0, 0x86, 0x3d, 0x58, 0x3f,
 0x2c, 0xaa, 0x85, 0xbe, 0x4a, 0x05, 0x9b, 0xbd, 0x40, 0xd0, 0x25, 0x3c,
 0x60, 0xfa, 0x2f, 0x3e, 0xfe, 0xfb, 0x13, 0xbe, 0x68, 0x9c, 0x8f, 0xbd,
 0x6e, 0xe6, 0x24, 0x3d, 0xd9, 0xd5, 0x20, 0xbe, 0x70, 0xda, 0x41, 0x3e,
 0x43, 0x5e, 0x4e, 0x3e, 0xe0, 0x17, 0x2f, 0x3c, 0x20, 0x03, 0x84, 0xbe,
 0xec, 0x61, 0x5e, 0x3e, 0x4c, 0xc0, 0x3d, 0xbd, 0xd4, 0x85, 0x99, 0x3d,
 0x20, 0x9a, 0x9c, 0x3d, 0xda, 0xee, 0xbd, 0xbd, 0xd8, 0x1c, 0xad, 0x3d,
 0x18, 0xfa, 0x8d, 0x3e, 0xce, 0x29, 0x11, 0x3e, 0x0f, 0x21, 0x37, 0x3e,
 0x9b, 0x6c, 0x4c, 0x3e, 0xc1, 0x49, 0x4c, 0xbd, 0xb3, 0xdc, 0xc9, 0xc0,
 0xfb, 0xe7, 0x0b, 0x3e, 0xc6, 0xa8, 0x82, 0x3e, 0x2c, 0x8c, 0x52, 0xbe,
 0x51, 0x48, 0x18, 0xbe, 0x40, 0xd0, 0x61, 0x3e, 0x93, 0xa3, 0x93, 0xbe,
 0x06, 0xcf, 0x97, 0x3e, 0x2d, 0x17, 0xb5, 0x3d, 0x8a, 0x95, 0xd3, 0xbb,
 0xff, 0xd2, 0x07, 0xc1, 0x6a, 0x0c, 0xf5, 0x3f, 0x26, 0x55, 0x37, 0xbc,
 0xb8, 0xd9, 0x1c, 0x3b, 0x7c, 0x22, 0xab, 0xbc, 0xca, 0x25, 0x07, 0x40,
 0xa7, 0x67, 0x89, 0xbf, 0x7d, 0xf9, 0x13, 0xbd, 0x63, 0x32, 0x5a, 0xbe,
 0x20, 0xef, 0x5b, 0x3e, 0x47, 0x4f, 0x21, 0xbe, 0x1c, 0x83, 0xb6, 0x3d,
 0xa8, 0x7f, 0xce, 0x3d, 0x30, 0xa4, 0xc5, 0xbc, 0xfa, 0x3f, 0x8e, 0xbe,
 0xa0, 0x71, 0x59, 0x3e, 0xd0, 0x3b, 0x45, 0x3e, 0x50, 0x13, 0x70, 0x3e,
 0xe8, 0xdb, 0x11, 0x3d, 0xbd, 0x7d, 0x6a, 0xbe, 0x78, 0x54, 0x71, 0x3e,
 0x2c, 0x6e, 0xd0, 0xbd, 0x41, 0x6a, 0x3c, 0xbe, 0xf3, 0x71, 0x81, 0x3e,
 0x22, 0xda, 0xa6, 0xbd, 0x51, 0x29, 0xd8, 0xc0, 0xe3, 0xd8, 0x35, 0xbe,
 0x49, 0x6b, 0x88, 0xbe, 0x1c, 0x4d, 0x52, 0xbd, 0x8c, 0xd4, 0x10, 0xbe,
 0x68, 0xf2, 0x7c, 0x3e, 0xbd, 0xb3, 0x07, 0xbe, 0x28, 0x27, 0x94, 0x3e,
 0x1e, 0x00, 0x93, 0xbe, 0x68, 0x78, 0x87, 0x3e, 0x0c, 0xd4, 0x6a, 0x3e,
 0xb0, 0x6f, 0x16, 0x3d, 0xb7, 0xaf, 0xc7, 0x3c, 0x5e, 0x07, 0x85, 0x3c,
 0x60, 0x22, 0x70, 0xbd, 0x29, 0x3a, 0x9a, 0x3f, 0x37, 0x73, 0x31, 0xbf,
 0x68, 0x28, 0x4e, 0x3e, 0xf0, 0xc7, 0x98, 0xbc, 0x80, 0xca, 0x6b, 0xbb,
 0x88, 0x2a, 0x98, 0x3d, 0x54, 0x2d, 0x64, 0x3e, 0x9e, 0xdb, 0xff, 0xff,
 0x04, 0x00, 0x00, 0x00, 0x00, 0x01, 0x00, 0x00, 0x00, 0x00, 0x00, 0x00,
 0x00, 0x00, 0x00, 0x00, 0x80, 0x74, 0x94, 0xbd, 0x00, 0x00, 0x00, 0x00,
 0x8e, 0x70, 0x1b, 0x3e, 0x00, 0x00, 0x00, 0x00, 0x6b, 0x6f, 0x82, 0xbd,
 0x00, 0x00, 0x00, 0x00, 0x00, 0x00, 0x00, 0x00, 0x00, 0x00, 0x00, 0x00,
 0x99, 0x17, 0xa0, 0x3c, 0x00, 0x00, 0x00, 0x00, 0x00, 0x00, 0x00, 0x00,
 0x00, 0x00, 0x00, 0x00, 0x48, 0x1d, 0xb1, 0xbc, 0x00, 0x00, 0x00, 0x00,
 0xa0, 0xe1, 0x49, 0x3e, 0x00, 0x00, 0x00, 0x00, 0x5e, 0x22, 0xcf, 0x3c,
 0x00, 0x00, 0x00, 0x00, 0x00, 0x00, 0x00, 0x00, 0x00, 0x00, 0x00, 0x00,
 0x23, 0x56, 0x5f, 0x3d, 0x00, 0x00, 0x00, 0x00, 0x00, 0x00, 0x00, 0x00,
 0x00, 0x00, 0x00, 0x00, 0x00, 0x00, 0x00, 0x00, 0xd2, 0x95, 0xe7, 0x3d,
 0x00, 0x00, 0x00, 0x00, 0xba, 0x8b, 0x2b, 0x3e, 0x00, 0x00, 0x00, 0x00,
 0x77, 0x07, 0x5d, 0x3d, 0xd2, 0x54, 0xa4, 0x3c, 0x05, 0xc9, 0xc4, 0xbb,
 0x00, 0x00, 0x00, 0x00, 0xee, 0x8c, 0xb6, 0x3b, 0x00, 0x00, 0x00, 0x00,
 0x37, 0x99, 0x6d, 0x3b, 0x00, 0x00, 0x00, 0x00, 0x16, 0xee, 0x28, 0xbd,
 0x00, 0x00, 0x00, 0x00, 0xd7, 0xc1, 0x1e, 0xbd, 0x37, 0x33, 0xfa, 0xbd,
 0x00, 0x00, 0x00, 0x00, 0x22, 0x24, 0x36, 0xbc, 0x00, 0x00, 0x00, 0x00,
 0x00, 0x00, 0x00, 0x00, 0x82, 0xd6, 0x7d, 0xbc, 0x00, 0x00, 0x00, 0x00,
 0x4c, 0x06, 0x2f, 0xbd, 0x00, 0x00, 0x00, 0x00, 0x00, 0x00, 0x00, 0x00,
 0x41, 0x01, 0x96, 0xbd, 0x00, 0x00, 0x00, 0x00, 0x0d, 0x1b, 0xb9, 0xbd,
 0x41, 0x0d, 0x37, 0x3e, 0xf8, 0xdd, 0xb4, 0x3d, 0x00, 0x00, 0x00, 0x00,
 0x00, 0x00, 0x00, 0x00, 0x39, 0xda, 0xe0, 0x3c, 0x00, 0x00, 0x00, 0x00,
 0x00, 0x00, 0x00, 0x00, 0x47, 0x70, 0xdf, 0xbc, 0x00, 0x00, 0x00, 0x00,
 0xaa, 0xdc, 0xff, 0xff, 0x04, 0x00, 0x00, 0x00, 0x80, 0x00, 0x00, 0x00,
 0xd6, 0x6a, 0x7c, 0x41, 0xac, 0x24, 0x7e, 0xc1, 0x55, 0xa8, 0x8e, 0x40,
 0x02, 0x00, 0x28, 0xc1, 0x10, 0x6b, 0x34, 0xc1, 0x7d, 0xdd, 0xf2, 0xc0,
 0xae, 0x5a, 0x43, 0xc0, 0xeb, 0x43, 0x45, 0x3d, 0x0d, 0x9a, 0x88, 0x41,
 0x1a, 0xd5, 0xfe, 0x3d, 0x9a, 0xa7, 0x72, 0xc1, 0x73, 0x48, 0xdc, 0x41,
 0xe5, 0x13, 0x64, 0xc1, 0x62, 0xc3, 0x85, 0xc1, 0x52, 0xa2, 0x7c, 0x41,
 0x13, 0x94, 0xe2, 0x41, 0x57, 0x76, 0x08, 0x41, 0x49, 0x68, 0x8d, 0x41,
 0xa1, 0x08, 0x80, 0x41, 0xf8, 0x5c, 0x31, 0xc1, 0xb8, 0xdd, 0x9c, 0xc0,
 0xa7, 0x35, 0xe7, 0xc1, 0xeb, 0xaf, 0x8a, 0xc1, 0x4b, 0xdc, 0x6f, 0x41,
 0x2e, 0x24, 0x9a, 0xc1, 0x95, 0xa3, 0x87, 0x41, 0xdf, 0x50, 0x65, 0x41,
 0x4f, 0xa0, 0xcb, 0x41, 0xc0, 0x65, 0x83, 0x41, 0x14, 0x30, 0x1e, 0x40,
 0x23, 0xb2, 0xc3, 0xc0, 0x35, 0x95, 0x20, 0x40, 0x36, 0xdd, 0xff, 0xff,
 0x04, 0x00, 0x00, 0x00, 0x00, 0x20, 0x00, 0x00, 0x01, 0xdc, 0x2e, 0x41,
 0x0f, 0xc7, 0xf5, 0x40, 0x1e, 0x02, 0x9c, 0x3b, 0x6d, 0x16, 0xad, 0xbf,
 0xf8, 0x70, 0x1b, 0xbf, 0x3d, 0xf2, 0x83, 0xc0, 0xf8, 0x7d, 0x48, 0xbb,
 0xe2, 0xb6, 0xda, 0x3f, 0x67, 0x9e, 0x17, 0xc1, 0xac, 0x17, 0x09, 0x40,
 0x44, 0xd2, 0xd9, 0x3f, 0x28, 0x0f, 0x66, 0xc0, 0xd8, 0xa0, 0xc5, 0xbf,
 0xd4, 0xf4, 0xb5, 0xc0, 0x04, 0x38, 0x93, 0xbe, 0x72, 0xcb, 0x95, 0xc0,
 0xdc, 0xe6, 0x25, 0xbb, 0x88, 0x9d, 0x04, 0x40, 0x8f, 0x1c, 0x1d, 0xc0,
 0x8e, 0x35, 0xf4, 0xc0, 0x48, 0xe6, 0x09, 0x41, 0x59, 0xca, 0x4a, 0xc0,
 0x06, 0xe4, 0x1b, 0xbb, 0x48, 0x6e, 0x12, 0x40, 0x14, 0xb9, 0xe7, 0x40,
 0xac, 0x16, 0x47, 0x41, 0x92, 0xbc, 0x6d, 0xc1, 0x8e, 0xa0, 0x0f, 0x40,
 0x94, 0xba, 0x51, 0xc0, 0x9a, 0xae, 0x1e, 0xc0, 0xba, 0x94, 0x47, 0xc1,
 0xd1, 0xdd, 0x3a, 0xbf, 0xd2, 0x4a, 0xa2, 0xba, 0xcc, 0x9b, 0xb5, 0xc0,
 0xb6, 0x8c, 0x04, 0xc1, 0xa1, 0xf8, 0x1a, 0xba, 0x64, 0xa6, 0x79, 0x41,
 0x56, 0xf5, 0x0a, 0xc0, 0xe3, 0xe1, 0x05, 0xc0, 0x76, 0x44, 0x22, 0xbb,
 0x91, 0x00, 0x20, 0x41, 0xb6, 0xf1, 0x43, 0xc0, 0x51, 0xda, 0x11, 0xbb,
 0xc2, 0x90, 0x2b, 0x41, 0x0c, 0x57, 0x5f, 0x40, 0x9f, 0x0f, 0x12, 0x41,
 0x46, 0x30, 0xcc, 0x40, 0x98, 0x46, 0x49, 0xc0, 0x15, 0x3f, 0xd7, 0xc0,
 0x77, 0xd9, 0x1e, 0xc0, 0x69, 0x72, 0x12, 0x40, 0xf3, 0x22, 0xdc, 0x3e,
 0x41, 0xca, 0x88, 0xbb, 0x92, 0x48, 0x3d, 0x41, 0x8f, 0xee, 0xb3, 0x3b,
 0x7a, 0xe5, 0x21, 0xc1, 0x40, 0x47, 0x06, 0x3f, 0xb8, 0xba, 0x43, 0x41,
 0xc0, 0x38, 0x55, 0xc0, 0xef, 0xd8, 0x55, 0xbb, 0x49, 0xfd, 0x95, 0x40,
 0xcc, 0x45, 0xfa, 0x40, 0x87, 0x64, 0xca, 0xbf, 0xc7, 0x20, 0x4d, 0x3f,
 0x83, 0x2d, 0x97, 0xbe, 0x82, 0xdd, 0x53, 0x3f, 0xd8, 0xc5, 0x2f, 0xbb,
 0xe4, 0xc8, 0xf8, 0xc0, 0x95, 0x34, 0x82, 0x3f, 0x06, 0x7f, 0xbb, 0xbe,
 0xe1, 0x67, 0x42, 0x3b, 0x79, 0xe5, 0x9a, 0x41, 0x03, 0xac, 0x0e, 0xc0,
 0x40, 0x87, 0x02, 0x41, 0xe6, 0xfa, 0x80, 0xc0, 0x08, 0xaf, 0x60, 0xc1,
 0x3c, 0xfb, 0x62, 0xbf, 0x09, 0xde, 0x16, 0xc1, 0x8d, 0x59, 0x80, 0x40,
 0x22, 0x4e, 0x4d, 0x40, 0x49, 0xe9, 0x16, 0x3b, 0x14, 0xed, 0x1a, 0xc1,
 0xca, 0xc5, 0x11, 0xbe, 0x4d, 0xec, 0x60, 0xc0, 0x27, 0x6e, 0x63, 0x40,
 0x2d, 0xbe, 0x34, 0xc1, 0x5f, 0xdf, 0x23, 0x3b, 0x00, 0x03, 0x9b, 0xbf,
 0x82, 0xd0, 0x9c, 0xc0, 0x4f, 0x44, 0x5d, 0xc0, 0x17, 0x97, 0xaf, 0x3e,
 0x02, 0x96, 0xaa, 0xbf, 0x17, 0x75, 0x8b, 0xc0, 0x50, 0xb0, 0x2d, 0xc1,
 0x12, 0xbe, 0x35, 0x40, 0x40, 0xac, 0xd0, 0x40, 0xee, 0x21, 0x9e, 0x3a,
 0x95, 0x92, 0x1b, 0xc1, 0x2f, 0xe1, 0x2a, 0xc0, 0x97, 0xd5, 0x8b, 0x3a,
 0xda, 0xa6, 0xad, 0x40, 0x57, 0x1d, 0xda, 0x40, 0xa2, 0xe6, 0xf2, 0x40,
 0x0b, 0x13, 0x37, 0x3b, 0x71, 0x01, 0xa0, 0x40, 0x78, 0xf3, 0xed, 0xc0,
 0xea, 0xf8, 0x1f, 0x3b, 0x88, 0xfb, 0x4a, 0x41, 0x31, 0x2f, 0x39, 0x41,
 0xc5, 0xf6, 0xd2, 0x40, 0x63, 0x64, 0xf5, 0x40, 0xd8, 0x16, 0xe8, 0x40,
 0xda, 0xb7, 0x96, 0xc0, 0x4c, 0x91, 0x36, 0xc0, 0x45, 0x2b, 0x39, 0x40,
 0xfc, 0xb1, 0xea, 0xbf, 0xe7, 0x96, 0x82, 0x3b, 0x17, 0x8d, 0x50, 0xc0,
 0xff, 0x42, 0x82, 0xbb, 0x99, 0xe3, 0xc4, 0x40, 0x93, 0x32, 0x3a, 0x40,
 0xe8, 0xde, 0xd7, 0x40, 0xf0, 0x4a, 0x66, 0xc1, 0xdb, 0x15, 0x78, 0x3b,
 0x6b, 0x19, 0x31, 0x41, 0x4c, 0x67, 0xd4, 0x40, 0xa0, 0x9e, 0xf8, 0x40,
 0x91, 0x35, 0x27, 0xc0, 0xeb, 0x59, 0x07, 0xc0, 0xb0, 0x34, 0x4b, 0xc1,
 0xff, 0x27, 0x19, 0x39, 0xf7, 0xef, 0x53, 0xc1, 0xc4, 0x64, 0x1a, 0xc1,
 0xba, 0xd4, 0xc9, 0xc0, 0x1f, 0xd7, 0x36, 0xbb, 0x92, 0x64, 0x40, 0x3f,
 0xfc, 0x99, 0xa4, 0xbf, 0x4c, 0x0a, 0x5b, 0xc0, 0xf5, 0x81, 0xdd, 0xc1,
 0x26, 0x86, 0x30, 0xc0, 0x65, 0x72, 0x07, 0x41, 0xd4, 0x99, 0x87, 0x40,
 0xc2, 0xf9, 0x10, 0x40, 0x76, 0x1b, 0xab, 0x3f, 0x41, 0x53, 0x55, 0x3b,
 0x37, 0x85, 0xd9, 0x3e, 0xca, 0x4e, 0x88, 0x40, 0xf2, 0xa2, 0xc5, 0x40,
 0x37, 0x5e, 0x75, 0x40, 0x3f, 0x4d, 0xbd, 0xc0, 0xfc, 0xd3, 0x9f, 0xba,
 0xb3, 0x82, 0x03, 0x41, 0x10, 0xc8, 0x80, 0xbf, 0x70, 0xb6, 0xb6, 0xbf,
 0x2c, 0x61, 0x65, 0x40, 0xf9, 0x6b, 0x67, 0x3d, 0xec, 0xb6, 0xa4, 0x40,
 0x8d, 0x05, 0x85, 0x40, 0x54, 0x7b, 0x24, 0x41, 0x4e, 0x8d, 0x9e, 0xbe,
 0xe2, 0x6a, 0x16, 0xba, 0xa5, 0xac, 0x71, 0x40, 0xa4, 0x69, 0xd6, 0xc0,
 0x5d, 0x5a, 0x75, 0xba, 0x0f, 0x98, 0x2e, 0xbf, 0x30, 0xbd, 0xa1, 0xc0,
 0x55, 0x3e, 0x11, 0xc0, 0x61, 0x76, 0xd9, 0xba, 0x64, 0x72, 0xd8, 0xbf,
 0x34, 0xf2, 0xe7, 0xbf, 0x44, 0xdc, 0x74, 0x3b, 0x31, 0x24, 0x7b, 0x3d,
 0xeb, 0x63, 0xf9, 0xc0, 0x89, 0xd2, 0xaf, 0x40, 0xb8, 0x82, 0x45, 0xc1,
 0x25, 0x76, 0xa5, 0x3e, 0x03, 0xcb, 0x20, 0x41, 0xbe, 0x40, 0xb3, 0xc0,
 0x31, 0xd1, 0x82, 0xc0, 0x4e, 0xa7, 0xc3, 0xbf, 0x8e, 0x1a, 0x38, 0xbb,
 0x32, 0x60, 0x22, 0xc1, 0x37, 0x11, 0xa9, 0xba, 0x96, 0xed, 0xab, 0xc0,
 0x99, 0xb1, 0x8c, 0x40, 0xa8, 0x01, 0xfa, 0x40, 0x11, 0x63, 0xe5, 0x40,
 0xeb, 0xfb, 0xee, 0xba, 0x83, 0x78, 0xfc, 0x3f, 0x71, 0x2e, 0x25, 0xbf,
 0x2f, 0x52, 0x85, 0xc1, 0x6d, 0x86, 0x16, 0xc1, 0xdf, 0xcd, 0x31, 0x40,
 0x14, 0x99, 0x54, 0xc1, 0xa0, 0x83, 0x24, 0x3c, 0x7a, 0xf0, 0xb3, 0xc0,
 0x01, 0x6f, 0x2c, 0xc1, 0x37, 0xdc, 0xfc, 0x40, 0xc3, 0xfa, 0x9c, 0x3a,
 0xf9, 0xf1, 0xda, 0xc0, 0x91, 0x63, 0x13, 0xc1, 0x47, 0xb1, 0xb6, 0xbd,
 0xe7, 0x30, 0x9d, 0xc0, 0xfa, 0x32, 0x52, 0x40, 0xf0, 0xf7, 0x52, 0x41,
 0xf7, 0x8c, 0x66, 0x41, 0x9b, 0x8b, 0xbf, 0x3f, 0xc9, 0x1d, 0xf4, 0xbf,
 0x18, 0xe1, 0x30, 0xbb, 0x0d, 0x4b, 0x80, 0x40, 0xa6, 0xe3, 0x2b, 0x40,
 0x54, 0x04, 0x3b, 0x41, 0x62, 0x1b, 0x31, 0xc1, 0x7b, 0xb3, 0xa7, 0xc1,
 0xa8, 0x28, 0x07, 0x3a, 0xff, 0xe6, 0xab, 0x41, 0xaf, 0x3c, 0x2b, 0x41,
 0x86, 0xbb, 0x9c, 0xc1, 0xc5, 0xc8, 0x05, 0x41, 0xe1, 0x4f, 0xbd, 0xc0,
 0x76, 0xe1, 0x7d, 0x3f, 0xc2, 0x52, 0x93, 0x3e, 0xd6, 0xa8, 0x73, 0x41,
 0x75, 0x9a, 0x8f, 0xbe, 0xc9, 0x2f, 0x63, 0x39, 0x01, 0x3f, 0x2f, 0x41,
 0x1b, 0xb9, 0x81, 0xc0, 0x47, 0xc9, 0xfd, 0xb8, 0x8c, 0xb6, 0xb7, 0xbf,
 0x61, 0x62, 0xf8, 0xc0, 0x43, 0xf2, 0xb4, 0x40, 0x32, 0x3e, 0x68, 0x3a,
 0x87, 0xc6, 0x3f, 0xc1, 0xfd, 0xf2, 0xde, 0xc0, 0xdb, 0xae, 0x86, 0xbb,
 0x54, 0xcf, 0x69, 0xc1, 0x76, 0x2e, 0x15, 0xc1, 0xf3, 0xe3, 0x81, 0xc1,
 0x7c, 0x8d, 0xb4, 0xc1, 0x02, 0x6f, 0x0a, 0xc1, 0x38, 0xec, 0xad, 0x40,
 0xe5, 0x81, 0x3e, 0xc0, 0x30, 0x1c, 0x41, 0xc1, 0x4d, 0x1b, 0x51, 0xc1,
 0x1f, 0x9c, 0x58, 0x3a, 0x9c, 0xd1, 0xfc, 0xc0, 0x7d, 0x7b, 0x89, 0x3c,
 0x97, 0x85, 0xff, 0xc0, 0xab, 0xfc, 0x62, 0x41, 0x3d, 0x58, 0x81, 0xc0,
 0xd1, 0xd9, 0xfc, 0x40, 0xd0, 0x9e, 0xd3, 0x39, 0xbb, 0x81, 0x12, 0xc1,
 0x3b, 0xc7, 0x2b, 0xc1, 0x0a, 0x90, 0x19, 0xbf, 0x00, 0xc6, 0x44, 0xc1,
 0x8a, 0xe5, 0x16, 0x40, 0xa5, 0x9d, 0xa5, 0x40, 0xf7, 0x99, 0x4d, 0x3b,
 0x15, 0x99, 0x77, 0x40, 0x06, 0xee, 0x20, 0x41, 0xca, 0x54, 0x70, 0xc0,
 0x45, 0x26, 0x82, 0xba, 0x42, 0x6e, 0x89, 0xbf, 0xeb, 0xcf, 0xbf, 0xbe,
 0x0e, 0x79, 0xb1, 0x40, 0x02, 0xdf, 0x30, 0xc0, 0x19, 0x3a, 0xce, 0xc0,
 0xe4, 0xc2, 0xbe, 0x3c, 0x31, 0x41, 0x8f, 0xbf, 0x76, 0x2a, 0x97, 0x40,
 0x4e, 0x8f, 0xb2, 0x41, 0xe9, 0xc8, 0x03, 0x3c, 0xf7, 0xcd, 0x0c, 0x41,
 0x02, 0x8b, 0xd0, 0xc0, 0x1a, 0x9d, 0x7b, 0xc1, 0x9c, 0x07, 0x90, 0xc0,
 0xb9, 0xac, 0xfb, 0x40, 0x45, 0xf3, 0x27, 0x39, 0x98, 0xa7, 0xc7, 0xc0,
 0x0f, 0xcd, 0xad, 0xc0, 0xff, 0x95, 0x28, 0x41, 0x7e, 0xe6, 0xc5, 0xc0,
 0xf5, 0x8b, 0x09, 0xbf, 0x12, 0x1e, 0x25, 0xc1, 0x98, 0xf1, 0x9c, 0xc0,
 0x33, 0x10, 0x44, 0xc1, 0xec, 0x28, 0x16, 0x41, 0x8c, 0xc3, 0xa9, 0x39,
 0xe6, 0x54, 0xed, 0xc0, 0x47, 0x19, 0x61, 0xc0, 0x19, 0x2d, 0xf9, 0x38,
 0xd7, 0x96, 0x02, 0xc1, 0x63, 0x32, 0x4c, 0x40, 0x2a, 0x1f, 0xc5, 0x40,
 0xb3, 0xdd, 0x39, 0xb9, 0xdc, 0x75, 0x43, 0xc1, 0x6d, 0x2e, 0x7b, 0xc1,
 0x24, 0xaa, 0x3d, 0x3c, 0x1a, 0xae, 0x8b, 0x3f, 0x15, 0xe6, 0xd3, 0xc0,
 0x52, 0xe1, 0xd4, 0x40, 0xa8, 0xd0, 0x8c, 0x3f, 0xa8, 0x69, 0x23, 0x40,
 0x8d, 0xf4, 0x8c, 0xbf, 0x57, 0xe8, 0xb8, 0xc0, 0x21, 0x3b, 0xb2, 0x3f,
 0xc9, 0xa9, 0xc2, 0x3f, 0x49, 0x7a, 0x4f, 0xba, 0xeb, 0x9c, 0x2f, 0x41,
 0x16, 0x03, 0xc0, 0xba, 0xae, 0x98, 0x87, 0x41, 0x0e, 0xd7, 0x07, 0xc0,
 0xd3, 0xdf, 0xaf, 0xbf, 0xb6, 0x67, 0x3f, 0xc1, 0x09, 0xdc, 0x60, 0xb7,
 0x6e, 0x54, 0x97, 0xc0, 0xfb, 0xd6, 0xfb, 0xc0, 0x23, 0xc7, 0x24, 0x41,
 0xbe, 0x25, 0x41, 0x41, 0x4d, 0x9e, 0x9b, 0xc0, 0x62, 0x2f, 0xcf, 0x41,
 0xf6, 0xea, 0x70, 0x3a, 0x68, 0xa3, 0xc7, 0xbe, 0x43, 0x79, 0xb6, 0xbf,
 0x2f, 0xcc, 0x9e, 0xc0, 0xae, 0xe1, 0xec, 0x3a, 0x95, 0x56, 0x0d, 0xc1,
 0xfd, 0x0f, 0x09, 0xc0, 0x9a, 0x39, 0x6b, 0x3e, 0xc2, 0x2d, 0x1e, 0x41,
 0xc6, 0x52, 0x2c, 0xc1, 0xd9, 0x19, 0xe9, 0xc0, 0x15, 0x40, 0x8a, 0xc0,
 0xf2, 0xa4, 0x68, 0xc0, 0x1b, 0xd9, 0x9d, 0xbf, 0xc2, 0x65, 0x02, 0x3c,
 0x43, 0x79, 0xa1, 0xc0, 0xbf, 0x0a, 0xab, 0xc1, 0xc8, 0xbe, 0x4a, 0xc0,
 0x64, 0x04, 0x62, 0x41, 0xa4, 0xec, 0x05, 0x41, 0xe4, 0x5b, 0x16, 0x3a,
 0x5e, 0x89, 0x69, 0xc1, 0xbc, 0xf2, 0x13, 0x3f, 0x86, 0x65, 0x86, 0x40,
 0xc0, 0x48, 0x6c, 0x3e, 0x03, 0x18, 0x6e, 0x40, 0xb3, 0x30, 0x2d, 0xc1,
 0xd1, 0xed, 0xbf, 0xbf, 0x74, 0xf9, 0xc4, 0xbd, 0x35, 0xdd, 0x00, 0x40,
 0x84, 0x17, 0x85, 0xb9, 0x98, 0x29, 0x1b, 0x41, 0x93, 0x3d, 0x1b, 0xc1,
 0xb4, 0xac, 0xae, 0xb9, 0x99, 0xa6, 0x3c, 0xc0, 0x43, 0x99, 0x05, 0x41,
 0x66, 0x02, 0xb3, 0x40, 0x8d, 0x98, 0xe3, 0xb9, 0xd1, 0x9a, 0xc6, 0x3f,
 0x3a, 0x1c, 0x9a, 0xbc, 0x2d, 0x14, 0x14, 0x3c, 0x25, 0xcf, 0xc4, 0x40,
 0x44, 0x85, 0x13, 0x41, 0x3f, 0x10, 0x85, 0xc1, 0x94, 0x53, 0xc7, 0x40,
 0x99, 0x9e, 0x2c, 0xbf, 0xd9, 0x49, 0xac, 0x40, 0x17, 0x5e, 0x28, 0xc0,
 0x8f, 0x8c, 0x08, 0x41, 0x69, 0x91, 0x1f, 0x41, 0x2f, 0x06, 0x0a, 0xba,
 0x58, 0xab, 0x28, 0xc1, 0xa2, 0xee, 0x5f, 0xbb, 0xfa, 0xa9, 0xa8, 0x41,
 0xbc, 0x57, 0xb2, 0xc0, 0xd3, 0xb3, 0x5f, 0x40, 0x41, 0x42, 0x9a, 0xc1,
 0x9e, 0xa7, 0x13, 0xba, 0x75, 0x80, 0x86, 0x40, 0x82, 0x9e, 0x8c, 0x41,
 0xc9, 0x5d, 0xa6, 0x40, 0xfc, 0xa7, 0xbd, 0x40, 0x9f, 0x0a, 0x80, 0x40,
 0x3e, 0x27, 0x1f, 0xc1, 0x0f, 0xb9, 0xbb, 0xba, 0x3f, 0x1c, 0x3a, 0x40,
 0x04, 0xe9, 0x8a, 0x3f, 0xff, 0xfb, 0x04, 0xc0, 0x2a, 0x5d, 0x52, 0x3b,
 0xdb, 0x24, 0x9c, 0xc0, 0x05, 0x0c, 0x8f, 0x3e, 0x89, 0x97, 0x5e, 0xbf,
 0xaf, 0x43, 0x1a, 0x41, 0x72, 0xeb, 0x83, 0x3c, 0xbe, 0xcb, 0xee, 0xbf,
 0x21, 0xf8, 0x48, 0xbf, 0x52, 0x32, 0x51, 0x40, 0x84, 0xaa, 0x33, 0xc1,
 0x64, 0x2a, 0x6a, 0xbb, 0xbc, 0xa4, 0x38, 0x40, 0xd1, 0x85, 0x5f, 0x41,
 0x22, 0x94, 0x75, 0xc0, 0xc1, 0x51, 0xee, 0xbe, 0x59, 0xa7, 0x67, 0x40,
 0x8e, 0xc3, 0x92, 0x3a, 0x33, 0x5a, 0x1e, 0xc0, 0xf5, 0x79, 0x17, 0xc0,
 0x9b, 0xbe, 0xda, 0xbe, 0x42, 0xc7, 0x20, 0x40, 0x87, 0xfe, 0xd0, 0x40,
 0x66, 0x96, 0xf5, 0xc0, 0x7d, 0xf6, 0x51, 0xc0, 0xa7, 0x57, 0x1f, 0x40,
 0xff, 0x0b, 0x83, 0x3f, 0x4b, 0x8a, 0x80, 0x3a, 0xbf, 0x6b, 0xc0, 0x40,
 0x27, 0x3a, 0xdb, 0x3e, 0xe5, 0x3d, 0x21, 0x3a, 0x76, 0xac, 0xe3, 0xbf,
 0x49, 0xd2, 0xe0, 0x40, 0x2c, 0xda, 0x11, 0xc1, 0x3d, 0x65, 0xa6, 0x3a,
 0x75, 0xf8, 0x1b, 0x40, 0x8c, 0xe1, 0x0b, 0x41, 0x13, 0x64, 0x8d, 0xbb,
 0xec, 0x39, 0x94, 0x40, 0x33, 0xbc, 0xc5, 0x40, 0x7a, 0x99, 0xd5, 0xc0,
 0x30, 0x00, 0x3d, 0x3f, 0x26, 0x9c, 0xfc, 0x3d, 0x20, 0xc3, 0x28, 0x40,
 0x9e, 0xee, 0x80, 0xc0, 0xbd, 0xa1, 0x98, 0x40, 0x0b, 0x2a, 0x3b, 0x41,
 0xf4, 0x1b, 0x36, 0x3b, 0xf5, 0xe5, 0xe9, 0x40, 0x82, 0x29, 0xe1, 0xba,
 0x54, 0x5f, 0x0f, 0x40, 0x2e, 0x26, 0x29, 0xc1, 0xd8, 0x0e, 0x85, 0xc1,
 0xba, 0x20, 0x28, 0xc1, 0xa7, 0x9c, 0x0b, 0x3b, 0x51, 0xce, 0xf1, 0x3f,
 0x2c, 0xa8, 0x50, 0x3f, 0x90, 0x12, 0x86, 0x40, 0x33, 0xe9, 0x3e, 0x40,
 0x44, 0xf9, 0x09, 0x41, 0xac, 0x22, 0x8d, 0xbe, 0xa6, 0x72, 0x00, 0xbb,
 0x9d, 0x4f, 0xce, 0x40, 0x16, 0xd8, 0x34, 0x40, 0x5e, 0x68, 0xe5, 0xc0,
 0xd1, 0x6d, 0x2f, 0xbb, 0xd1, 0xe9, 0x44, 0xc0, 0xf7, 0x70, 0x20, 0x40,
 0x15, 0xed, 0x06, 0x41, 0xe6, 0x19, 0x51, 0xbf, 0x92, 0x7d, 0x6f, 0x40,
 0xc8, 0xcd, 0x16, 0xc0, 0x67, 0xba, 0x2a, 0xc1, 0x80, 0xc7, 0x0b, 0x3f,
 0x31, 0x62, 0x10, 0xc1, 0x22, 0x7d, 0xcd, 0x3b, 0xce, 0x08, 0x80, 0xc1,
 0xa7, 0xf8, 0xe4, 0xc0, 0xd6, 0x44, 0x28, 0xc1, 0x73, 0xf3, 0x24, 0x41,
 0xba, 0x51, 0xe3, 0x40, 0xca, 0xff, 0x2d, 0xba, 0xac, 0x3f, 0xb4, 0xc0,
 0xa5, 0x2b, 0x36, 0xc0, 0x6d, 0xa6, 0xd0, 0x40, 0xae, 0x9d, 0x84, 0x3f,
 0xfc, 0x37, 0xeb, 0x40, 0xee, 0x9e, 0x9f, 0xc0, 0xc7, 0x20, 0x20, 0xc1,
 0xba, 0xe2, 0x30, 0xc1, 0xcb, 0x22, 0x2d, 0x41, 0x73, 0x86, 0x7a, 0xba,
 0xbd, 0x82, 0x2c, 0x41, 0x95, 0xa2, 0x67, 0xbf, 0x9e, 0xa3, 0x37, 0xba,
 0xe2, 0x5d, 0xd0, 0xc0, 0x9f, 0x43, 0x95, 0xc0, 0xd3, 0xdc, 0xd2, 0x40,
 0x54, 0xf4, 0x1c, 0xba, 0xa7, 0x99, 0x61, 0x41, 0xcf, 0x87, 0xf5, 0x3f,
 0x00, 0xfe, 0xec, 0x3b, 0xef, 0x04, 0xb6, 0x40, 0xd4, 0xf2, 0x42, 0xc0,
 0x88, 0x45, 0x84, 0x40, 0x03, 0xfb, 0x0f, 0xc0, 0x34, 0x2c, 0x5d, 0x40,
 0x2e, 0xaa, 0x5e, 0xc0, 0x7c, 0x9b, 0x53, 0x41, 0x76, 0xec, 0x8d, 0xbf,
 0xb7, 0xe0, 0x29, 0x41, 0xc3, 0xdd, 0x9f, 0xba, 0x04, 0x2e, 0xc2, 0x40,
 0x5a, 0x59, 0x9b, 0xba, 0x34, 0x15, 0x49, 0xc1, 0x64, 0x61, 0xa7, 0xc0,
 0xa8, 0x2e, 0x0e, 0xc1, 0x07, 0x2e, 0x69, 0x3f, 0x14, 0xa7, 0xae, 0x39,
 0x66, 0xdc, 0x28, 0x40, 0x17, 0x18, 0x61, 0x40, 0xb6, 0xed, 0x32, 0xc0,
 0xb6, 0x39, 0x09, 0x41, 0x94, 0x3e, 0x16, 0x3f, 0x6e, 0xce, 0xa5, 0x3f,
 0x1d, 0xc4, 0x45, 0x3b, 0x9b, 0xc7, 0x38, 0xc0, 0xf6, 0x19, 0x20, 0x41,
 0xd2, 0x10, 0xe4, 0xc0, 0xc1, 0x37, 0x57, 0xbb, 0xc7, 0x15, 0x22, 0x41,
 0x3f, 0x4e, 0x07, 0x41, 0xa2, 0x02, 0x67, 0xc0, 0xe4, 0x67, 0x70, 0xbf,
 0xa2, 0x9d, 0xb0, 0xc0, 0xb8, 0x53, 0x07, 0x40, 0xf2, 0x58, 0x93, 0x40,
 0x27, 0xc1, 0x84, 0xc0, 0x4c, 0x7d, 0x9d, 0xc0, 0x93, 0x33, 0xb6, 0xba,
 0x3b, 0x0c, 0xb8, 0xc0, 0x7d, 0xab, 0xc5, 0x40, 0xaf, 0x65, 0x1f, 0xbf,
 0xbc, 0x67, 0x8b, 0x3e, 0x72, 0x18, 0x52, 0x41, 0x9b, 0xd0, 0x2d, 0xbb,
 0x30, 0x09, 0x66, 0x40, 0x6b, 0xba, 0x19, 0x40, 0x81, 0x77, 0x97, 0xbd,
 0x67, 0x11, 0x1b, 0xc0, 0x29, 0x7a, 0x25, 0x40, 0x45, 0xf4, 0xb3, 0xc0,
 0x83, 0xdc, 0xc8, 0xc0, 0xb1, 0x24, 0x19, 0xc0, 0x36, 0x4b, 0x95, 0xbe,
 0xe6, 0x64, 0x97, 0xba, 0xf9, 0x8d, 0x0b, 0x40, 0x3d, 0xdb, 0x48, 0x40,
 0x9a, 0xc5, 0x86, 0xba, 0x53, 0x55, 0xf3, 0xc0, 0x45, 0xce, 0xb1, 0x40,
 0x26, 0x9e, 0xb4, 0xc0, 0x1b, 0xc3, 0x1f, 0xbb, 0x05, 0x27, 0xcd, 0x40,
 0x54, 0x4f, 0xcc, 0xbe, 0x30, 0xff, 0x4f, 0xbb, 0x30, 0x99, 0x09, 0x41,
 0x3f, 0xc7, 0x4c, 0x3f, 0x2d, 0x70, 0xc8, 0xbf, 0xf5, 0x18, 0xb0, 0x40,
 0x6f, 0x5b, 0x07, 0xc0, 0x73, 0xbd, 0xe7, 0xc0, 0x77, 0x3c, 0xb5, 0xc0,
 0xf7, 0xd3, 0xa1, 0x40, 0x63, 0xbb, 0xbe, 0x40, 0x73, 0xf8, 0x60, 0xbb,
 0x64, 0xfd, 0xac, 0x40, 0xe1, 0x16, 0x82, 0x3b, 0xbf, 0xda, 0xea, 0xc0,
 0x8f, 0xbc, 0xbc, 0xc0, 0xb9, 0xa7, 0x70, 0x40, 0x00, 0xd5, 0xc0, 0xc0,
 0xbb, 0x4e, 0x61, 0xbb, 0x1e, 0x1b, 0x65, 0x41, 0x5f, 0x8b, 0x57, 0x41,
 0xed, 0x75, 0x9d, 0x3f, 0x1c, 0xb7, 0x1d, 0x41, 0x87, 0xad, 0x8f, 0x40,
 0x2c, 0x7b, 0xbc, 0xbe, 0x6d, 0xa5, 0x02, 0x3b, 0x47, 0x5b, 0xdd, 0xc0,
 0xfd, 0x1f, 0xe8, 0xc0, 0x8c, 0x9e, 0x0f, 0x3f, 0x20, 0xaa, 0x7d, 0xbb,
 0x6c, 0xac, 0x18, 0xc0, 0xd5, 0x80, 0xa3, 0xbf, 0x2b, 0xf7, 0x6b, 0x3e,
 0x03, 0x4d, 0x91, 0xc1, 0x86, 0xcd, 0x11, 0xbf, 0xd2, 0xf3, 0x36, 0xc0,
 0x1d, 0x85, 0x06, 0x41, 0x76, 0xab, 0x49, 0xc0, 0xde, 0x7e, 0x34, 0x3f,
 0xc6, 0xa9, 0x2b, 0x3b, 0x49, 0x20, 0xed, 0x40, 0x42, 0x88, 0xf6, 0xc0,
 0x84, 0xd4, 0x50, 0xbf, 0x8e, 0x01, 0xe2, 0x3f, 0xe7, 0xb5, 0x83, 0xc0,
 0xed, 0x58, 0xc8, 0xba, 0x42, 0x83, 0x0a, 0x3f, 0x82, 0x61, 0x45, 0xc1,
 0x9f, 0x2d, 0xe8, 0xc0, 0x13, 0x27, 0xc6, 0x3f, 0x01, 0xe7, 0x54, 0x3f,
 0xba, 0xb2, 0xb1, 0xbf, 0x48, 0x7e, 0xdc, 0x41, 0xbf, 0xed, 0x5b, 0x41,
 0xa4, 0x41, 0xa6, 0xc0, 0x76, 0x14, 0x5a, 0xba, 0xe2, 0xb2, 0xca, 0x40,
 0xa8, 0x5f, 0x24, 0xc1, 0x25, 0x32, 0xc9, 0xb9, 0x3e, 0xd2, 0xaf, 0xc0,
 0xe3, 0x7c, 0x70, 0xc1, 0x9c, 0xe4, 0xad, 0x3f, 0x0e, 0x7d, 0x2a, 0xba,
 0x0b, 0x21, 0xb6, 0x3f, 0x08, 0x08, 0x23, 0xbf, 0x53, 0x6d, 0x50, 0x3b,
 0xe2, 0xbc, 0x03, 0xc1, 0x9b, 0x2b, 0x52, 0xc1, 0xf6, 0x0f, 0xdc, 0xc0,
 0x68, 0x34, 0x79, 0xbf, 0x9d, 0x48, 0xd3, 0xc0, 0x76, 0xd3, 0x1f, 0x41,
 0x14, 0x2f, 0x79, 0xc1, 0xa7, 0x2d, 0xb5, 0xc0, 0xad, 0xef, 0x24, 0xc1,
 0x3c, 0x8e, 0x46, 0xba, 0x28, 0x7b, 0x8a, 0xc0, 0x14, 0x4b, 0xb4, 0x3b,
 0xc6, 0x2d, 0xf8, 0xc1, 0xc8, 0x36, 0x9b, 0x41, 0xeb, 0x2c, 0x21, 0x41,
 0x0c, 0x51, 0x41, 0xc0, 0xe7, 0xdf, 0x22, 0xbb, 0xd3, 0x37, 0x60, 0xc0,
 0x24, 0x76, 0x87, 0xc0, 0xdd, 0x5b, 0xc0, 0xc0, 0x15, 0x2f, 0x05, 0xc1,
 0xff, 0xf4, 0x51, 0x41, 0xc7, 0x13, 0xe4, 0xbf, 0x5f, 0xf5, 0xca, 0xba,
 0x13, 0x94, 0xe5, 0x3f, 0x56, 0x69, 0x77, 0x3f, 0xbb, 0x10, 0x28, 0xc1,
 0x65, 0x56, 0x96, 0x3b, 0xd2, 0x4a, 0xc1, 0x40, 0x8d, 0x4f, 0x21, 0xc0,
 0x55, 0x26, 0x37, 0x41, 0x67, 0x0b, 0x73, 0x40, 0x61, 0xef, 0x84, 0xc1,
 0xad, 0xa0, 0x52, 0xc0, 0xc2, 0x6e, 0x27, 0xc1, 0xaa, 0x63, 0xd5, 0x3f,
 0x32, 0x2d, 0x25, 0xc1, 0x00, 0x30, 0xbb, 0x3a, 0xb9, 0x3a, 0x25, 0xc0,
 0x79, 0x93, 0xbf, 0xc0, 0xd0, 0x09, 0x1e, 0x40, 0xab, 0x29, 0x32, 0x41,
 0x97, 0x60, 0xa8, 0x40, 0x42, 0xb8, 0x11, 0x3b, 0xc6, 0x05, 0x2a, 0xc1,
 0xe7, 0xed, 0x61, 0x40, 0x58, 0xe0, 0xcc, 0x40, 0xce, 0xcc, 0xe5, 0xbf,
 0x89, 0xd8, 0x37, 0xc0, 0x72, 0x9d, 0x8c, 0xc1, 0xcb, 0xfa, 0x37, 0x3f,
 0xcb, 0xf4, 0x72, 0xc1, 0xf1, 0x0e, 0x1a, 0x40, 0xbb, 0x94, 0xb8, 0x3a,
 0x73, 0x18, 0x8d, 0xc0, 0x6b, 0xeb, 0xb0, 0x40, 0x1d, 0xa2, 0xa0, 0x3a,
 0x94, 0x19, 0x46, 0x41, 0xda, 0x4e, 0x1a, 0x41, 0x1e, 0x31, 0xbf, 0x40,
 0xda, 0x9d, 0x17, 0x3b, 0x80, 0x6e, 0x0c, 0x41, 0x8b, 0x1c, 0x86, 0x3e,
 0xbd, 0x3d, 0x2a, 0x3b, 0xd1, 0x20, 0x64, 0xc0, 0xc2, 0x22, 0x63, 0x3f,
 0x4a, 0x55, 0xee, 0xbf, 0xe7, 0xd5, 0xf7, 0x3f, 0x87, 0x2c, 0x12, 0x40,
 0x1a, 0xe0, 0x0f, 0xc1, 0x17, 0xf9, 0x12, 0xc0, 0xf1, 0xd9, 0xfb, 0xc0,
 0x49, 0x64, 0xf5, 0x40, 0xc7, 0x82, 0x2b, 0x3b, 0x63, 0x57, 0x12, 0x3f,
 0xf8, 0x9d, 0xff, 0xba, 0x79, 0x7e, 0xb1, 0xc0, 0x23, 0xc2, 0xbf, 0xbf,
 0x0c, 0xb0, 0xee, 0xc0, 0x9f, 0xc5, 0xeb, 0xbe, 0xa0, 0x1d, 0x27, 0x3b,
 0x53, 0xe2, 0x7f, 0xc0, 0x79, 0x72, 0x29, 0xbf, 0xd4, 0xa2, 0x44, 0xc0,
 0x1c, 0xd9, 0x64, 0x41, 0xbf, 0x36, 0x24, 0xc1, 0xf9, 0xa5, 0x96, 0x40,
 0xf0, 0xd3, 0xe6, 0xbc, 0x12, 0x36, 0xe6, 0xc0, 0x26, 0x78, 0xaf, 0x40,
 0x19, 0x6b, 0x92, 0xc0, 0xb3, 0x8f, 0x07, 0xba, 0x70, 0x41, 0x99, 0x41,
 0xdd, 0xec, 0x3b, 0xc0, 0xdd, 0x48, 0x69, 0xc1, 0x0b, 0x68, 0xf2, 0x40,
 0xc0, 0xfc, 0x9a, 0x40, 0xb1, 0x5f, 0x93, 0xc1, 0x80, 0xca, 0xdb, 0xc0,
 0xc1, 0x23, 0x4a, 0x41, 0x7c, 0x51, 0x5b, 0x40, 0xa0, 0x19, 0x8c, 0xba,
 0x54, 0x06, 0x85, 0xc0, 0x63, 0x7c, 0xe2, 0xc0, 0xe3, 0x91, 0xd7, 0xc0,
 0x40, 0xdd, 0x3f, 0x41, 0x6e, 0x47, 0xf1, 0xbf, 0x7e, 0x6e, 0x14, 0xba,
 0xd9, 0x4f, 0x27, 0xc1, 0x7e, 0x72, 0xf2, 0x3e, 0xca, 0x3d, 0xea, 0xbe,
 0x69, 0x0a, 0x4d, 0x40, 0x22, 0x1d, 0xb4, 0x40, 0x51, 0x32, 0xcc, 0xbf,
 0x36, 0xc1, 0x4b, 0x3f, 0xcd, 0x29, 0x26, 0xc1, 0x83, 0xa3, 0xa9, 0x40,
 0x6b, 0xc7, 0xde, 0x36, 0x46, 0x5d, 0x6a, 0x3f, 0x35, 0x2d, 0xf6, 0xbf,
 0x6a, 0x75, 0xd8, 0x38, 0x44, 0xee, 0x04, 0x41, 0x0c, 0x4a, 0x8a, 0xc0,
 0x50, 0x0e, 0x9d, 0x40, 0xa3, 0xd9, 0x9e, 0xb9, 0xd7, 0x32, 0x85, 0x41,
 0x45, 0xaf, 0xef, 0x40, 0xd0, 0xea, 0x84, 0xba, 0x82, 0x67, 0xde, 0x40,
 0x69, 0x56, 0xb5, 0xc0, 0x8b, 0x1e, 0x1b, 0xc1, 0x50, 0x31, 0xe7, 0xbf,
 0xde, 0x48, 0xbd, 0x40, 0xfe, 0x23, 0x06, 0xc1, 0xcd, 0xf4, 0xbe, 0xbe,
 0x3e, 0x36, 0x5c, 0x41, 0xb1, 0x8f, 0x69, 0xc0, 0x94, 0x88, 0xb8, 0xb8,
 0xbc, 0xa6, 0x30, 0x40, 0xcf, 0x27, 0x34, 0xbd, 0x31, 0x90, 0xd4, 0x3f,
 0x76, 0xdd, 0x48, 0xc1, 0x4f, 0x09, 0x28, 0xc1, 0x1d, 0x3e, 0x67, 0xc1,
 0xe4, 0x4f, 0xf5, 0xb8, 0x51, 0x49, 0x0b, 0x40, 0xae, 0xdc, 0x45, 0x41,
 0x2b, 0xe5, 0x9a, 0x3f, 0x77, 0x9c, 0x13, 0xc0, 0xc9, 0xbf, 0xf1, 0x40,
 0xf2, 0x18, 0x09, 0x41, 0xcc, 0x3e, 0x99, 0x3c, 0xd6, 0x6d, 0x19, 0x41,
 0x09, 0x48, 0x20, 0x41, 0x9e, 0x23, 0xb4, 0xc1, 0x20, 0x8c, 0x66, 0x3a,
 0xb8, 0xef, 0x4f, 0x41, 0xf8, 0xf7, 0x9d, 0x41, 0xa4, 0xff, 0x8a, 0x41,
 0x25, 0xd1, 0x4c, 0xbe, 0x15, 0xca, 0x8b, 0xc1, 0xcc, 0xe4, 0x9a, 0xc1,
 0x75, 0x63, 0xc0, 0xc1, 0x22, 0x51, 0xab, 0xc0, 0x62, 0x82, 0x36, 0x41,
 0xb5, 0xd3, 0x4e, 0x3a, 0x9d, 0xd8, 0x69, 0xc1, 0xee, 0x55, 0xf2, 0x40,
 0xf6, 0x88, 0x72, 0xc1, 0xa0, 0xd6, 0xd5, 0x41, 0x43, 0xd3, 0xdf, 0x40,
 0xa3, 0x52, 0xaf, 0x39, 0x40, 0x94, 0x84, 0x3e, 0x85, 0x0b, 0xf1, 0xc0,
 0x26, 0xfc, 0xf2, 0x40, 0x03, 0x52, 0x16, 0xc1, 0x5d, 0x09, 0x38, 0x40,
 0xd7, 0xa2, 0x7a, 0xc1, 0xe9, 0xc6, 0x3e, 0xc1, 0x2f, 0x3e, 0x4b, 0xc0,
 0xba, 0x53, 0x25, 0x41, 0x29, 0x07, 0xc8, 0xb8, 0x6b, 0xf5, 0xeb, 0xc0,
 0xad, 0x8c, 0xf1, 0xbf, 0x37, 0xd3, 0x6e, 0x38, 0x32, 0xff, 0xe4, 0x40,
 0x3e, 0x92, 0xc9, 0x40, 0x24, 0x3f, 0x8b, 0x41, 0x6a, 0x1f, 0x08, 0x3a,
 0x26, 0x8a, 0x09, 0x40, 0xde, 0x20, 0x5b, 0xc1, 0x3f, 0x13, 0x85, 0x3a,
 0xa2, 0x21, 0x0c, 0x3f, 0x57, 0xe6, 0x87, 0xc1, 0x3d, 0x89, 0x6d, 0x41,
 0xb7, 0x7d, 0xc2, 0x40, 0x77, 0xab, 0xb3, 0x40, 0xcb, 0x62, 0x0f, 0xc1,
 0x8b, 0x53, 0x2c, 0x40, 0x02, 0x78, 0xf9, 0x40, 0xf0, 0xfc, 0xb8, 0x41,
 0x73, 0xf7, 0x05, 0x3a, 0x08, 0xd7, 0xd9, 0x41, 0x61, 0xf7, 0xe8, 0x3c,
 0x3c, 0x4e, 0x01, 0x41, 0xf6, 0x1a, 0xdd, 0xc0, 0xfe, 0x1d, 0x54, 0xc1,
 0xea, 0x54, 0x97, 0xc0, 0x0e, 0x2f, 0x81, 0x39, 0x67, 0x5a, 0x3e, 0x41,
 0xa8, 0x0c, 0x05, 0x40, 0x7e, 0x14, 0x6f, 0x41, 0x4a, 0xa3, 0x65, 0x41,
 0x5c, 0xb1, 0xad, 0xc0, 0x3d, 0x06, 0x2e, 0x3f, 0xff, 0xb5, 0xa1, 0x3a,
 0xd5, 0xab, 0xcd, 0xc0, 0x9f, 0xd3, 0xc1, 0x40, 0x7f, 0xf7, 0x5b, 0x3f,
 0x1c, 0xfa, 0x52, 0x3b, 0x8f, 0x6b, 0x68, 0x41, 0xed, 0x77, 0x14, 0x40,
 0x02, 0x67, 0x1e, 0x40, 0xf0, 0x01, 0xdd, 0x3f, 0x5d, 0xcb, 0xbc, 0xc0,
 0xad, 0x47, 0xb4, 0xc0, 0x9f, 0x7e, 0x84, 0xc0, 0x62, 0x79, 0x04, 0x40,
 0x33, 0x2d, 0x14, 0xc0, 0x98, 0x4e, 0xbc, 0x3a, 0x41, 0x28, 0x27, 0xc1,
 0xcd, 0x46, 0x49, 0xc1, 0x0d, 0x2d, 0x59, 0xbf, 0x0e, 0x56, 0x46, 0xc0,
 0xfc, 0x8d, 0x69, 0x40, 0x6b, 0xec, 0x13, 0x3b, 0xba, 0x31, 0x98, 0xc0,
 0xca, 0xab, 0x0b, 0xc1, 0xab, 0x9f, 0x83, 0x3f, 0x4b, 0xf5, 0xb2, 0xc0,
 0xeb, 0x2c, 0xd6, 0xc0, 0xa6, 0x40, 0x1f, 0x40, 0xf7, 0x9e, 0xb1, 0xc0,
 0xec, 0x64, 0x06, 0x40, 0xd3, 0xdf, 0x28, 0x40, 0xf4, 0x24, 0xe5, 0x3a,
 0xb4, 0x72, 0x86, 0x40, 0xde, 0xd7, 0x5a, 0xc1, 0x82, 0xaf, 0xa7, 0x3a,
 0x24, 0x06, 0x20, 0x40, 0xc7, 0xf5, 0x23, 0x40, 0x6d, 0x51, 0x88, 0x40,
 0x23, 0x9e, 0x2f, 0x3b, 0x57, 0x35, 0x56, 0xbf, 0xee, 0x47, 0x72, 0xc0,
 0x61, 0xe9, 0xef, 0x3a, 0x27, 0x17, 0x22, 0x41, 0xf4, 0x03, 0x03, 0xc1,
 0xa7, 0x26, 0xf4, 0x40, 0x22, 0xf0, 0x2a, 0xc0, 0x14, 0x93, 0x9b, 0xc0,
 0xdb, 0xa2, 0x86, 0x40, 0x49, 0xfd, 0x44, 0xc1, 0x56, 0xde, 0x20, 0xc0,
 0x9c, 0x83, 0x29, 0x41, 0x1e, 0x28, 0x38, 0x3b, 0xeb, 0x2a, 0xf9, 0x40,
 0xb8, 0x94, 0x9b, 0x3a, 0x35, 0xca, 0xa7, 0x40, 0x37, 0x8c, 0x28, 0xc1,
 0x8d, 0x3e, 0xe0, 0xbf, 0x57, 0x7c, 0x9f, 0xc0, 0x1d, 0x7c, 0x19, 0x3b,
 0x12, 0x3b, 0x2c, 0xbf, 0x78, 0x7f, 0x5a, 0x40, 0xa0, 0x69, 0x44, 0x41,
 0x63, 0xc4, 0x40, 0xc0, 0x0b, 0x5f, 0x8e, 0x41, 0x15, 0xd4, 0x31, 0x41,
 0x8d, 0x98, 0xbb, 0xbb, 0x8b, 0x57, 0xc6, 0x40, 0x0a, 0x0f, 0x22, 0x40,
 0xfb, 0xab, 0x8b, 0xc0, 0xde, 0xd0, 0x09, 0x3a, 0xc4, 0xa7, 0x63, 0x40,
 0x13, 0x7e, 0xc2, 0x3f, 0x7e, 0xf2, 0xba, 0x40, 0x31, 0x99, 0xfa, 0x40,
 0xf1, 0x23, 0x8c, 0xc1, 0x1e, 0x09, 0xea, 0x40, 0xa4, 0x82, 0x18, 0xc1,
 0xca, 0x5a, 0xb4, 0x40, 0xc2, 0x4d, 0x2d, 0x41, 0x63, 0x64, 0xf0, 0xbb,
 0x09, 0x6d, 0x19, 0xbf, 0x3e, 0x75, 0xf4, 0x40, 0xac, 0x28, 0xde, 0xbf,
 0xd6, 0xd1, 0xcd, 0xc0, 0xd7, 0x80, 0x47, 0x40, 0x85, 0x6d, 0xcd, 0x38,
 0x9f, 0x7b, 0x2f, 0xc1, 0x79, 0xd9, 0x63, 0xc1, 0x3c, 0xc4, 0xab, 0x41,
 0x00, 0x12, 0xff, 0x3e, 0x71, 0x0c, 0xe1, 0xc0, 0xdb, 0x60, 0x15, 0x41,
 0x27, 0xf4, 0x64, 0xc0, 0x75, 0x4c, 0x91, 0xc0, 0xe6, 0x33, 0x1e, 0xbf,
 0x3a, 0xc1, 0x6c, 0x39, 0xcf, 0xa7, 0x0e, 0x41, 0xcd, 0x0c, 0x08, 0x40,
 0xbc, 0x7c, 0x1c, 0xb8, 0xcb, 0x8c, 0xa1, 0x41, 0x9b, 0x8f, 0x0d, 0x40,
 0x34, 0x6d, 0x86, 0xbf, 0x2e, 0x37, 0xbc, 0xb9, 0xa0, 0xf4, 0x64, 0x40,
 0xee, 0xad, 0x30, 0xc1, 0x55, 0xb8, 0x08, 0xbc, 0xb1, 0xb1, 0x13, 0x41,
 0x95, 0xe9, 0x91, 0xbf, 0x48, 0x1a, 0xff, 0x3f, 0xa0, 0xa1, 0xe0, 0x40,
 0xe9, 0xe5, 0x9f, 0xc0, 0x62, 0xfc, 0x0b, 0xc0, 0x14, 0x24, 0x34, 0x40,
 0x28, 0x69, 0x3e, 0xc1, 0xa3, 0xc3, 0x85, 0x41, 0xfc, 0x16, 0x24, 0xba,
 0x23, 0x36, 0xa9, 0x40, 0x4c, 0xc9, 0x00, 0xbc, 0xbb, 0xde, 0xa5, 0xc0,
 0x5e, 0xc3, 0xad, 0x40, 0xac, 0x58, 0x2e, 0xc1, 0xd9, 0x3d, 0x68, 0xbf,
 0xab, 0xb3, 0x98, 0x39, 0x4d, 0x02, 0x8f, 0x41, 0x88, 0x71, 0x92, 0x40,
 0x36, 0x0a, 0x94, 0xc0, 0x3b, 0xba, 0xd9, 0x3f, 0x26, 0x20, 0xde, 0xbf,
 0x32, 0xa9, 0xc2, 0x3e, 0x0a, 0x5e, 0xec, 0xbc, 0x30, 0x83, 0xde, 0x40,
 0xd8, 0x42, 0xa0, 0x40, 0x32, 0xc0, 0xa2, 0xc0, 0x9e, 0x75, 0x88, 0xba,
 0x87, 0x71, 0x96, 0xc0, 0x1b, 0x47, 0xc8, 0xbe, 0x59, 0x8f, 0xb4, 0x40,
 0x69, 0xa4, 0x8b, 0xc0, 0xb6, 0x8d, 0x69, 0xc1, 0x8c, 0x83, 0xba, 0x40,
 0x1a, 0xc6, 0xde, 0x3f, 0x04, 0xbf, 0xe0, 0x3f, 0x3d, 0xd2, 0x94, 0x3e,
 0xc8, 0x64, 0xb5, 0xba, 0x05, 0xce, 0x01, 0xc1, 0x2a, 0x6f, 0x06, 0xc1,
 0x4b, 0x62, 0x06, 0xc1, 0xb4, 0x70, 0x56, 0x41, 0xbf, 0x20, 0x5e, 0x40,
 0x0e, 0x81, 0xa2, 0xb9, 0xdc, 0x27, 0xdd, 0x3f, 0x03, 0x87, 0x1a, 0x3f,
 0xe9, 0xee, 0x97, 0x40, 0xf8, 0xc6, 0x51, 0xc1, 0xd0, 0xa8, 0xec, 0xbf,
 0x0b, 0x88, 0xd1, 0x3f, 0x30, 0x3e, 0xaf, 0xc0, 0xd7, 0xfc, 0xc6, 0x40,
 0x14, 0xc8, 0x5f, 0x3f, 0x72, 0x9c, 0xed, 0xb8, 0x10, 0x81, 0x4a, 0xc1,
 0x51, 0xc5, 0x75, 0xc0, 0x09, 0x09, 0x5e, 0xb8, 0xeb, 0x25, 0x00, 0x41,
 0xe0, 0xe0, 0xf8, 0x3f, 0x74, 0xe4, 0x6e, 0x41, 0x58, 0x7f, 0x2f, 0xb9,
 0x51, 0x57, 0xa8, 0x40, 0xb4, 0x67, 0xf2, 0xbf, 0x7c, 0x21, 0xcd, 0xba,
 0xed, 0x55, 0x65, 0x40, 0xf1, 0xf7, 0xb3, 0x40, 0x92, 0x13, 0x22, 0x41,
 0x35, 0x21, 0x6c, 0x40, 0xe0, 0x02, 0x4f, 0xbf, 0xca, 0x63, 0xfe, 0xc0,
 0x44, 0x4d, 0x5a, 0xc0, 0x75, 0x41, 0x3b, 0x40, 0xe8, 0x1f, 0x5e, 0xc0,
 0xae, 0xd4, 0xae, 0x38, 0xa2, 0xea, 0x7d, 0x41, 0x33, 0x08, 0x31, 0xbd,
 0xf2, 0x82, 0xe4, 0xbe, 0xaf, 0xb5, 0x8e, 0xc0, 0xb6, 0xdd, 0x31, 0xc1,
 0xd7, 0xec, 0x89, 0xbf, 0x83, 0xb7, 0x06, 0xb9, 0x7b, 0x4d, 0xad, 0xc0,
 0x5e, 0x5e, 0x5b, 0x3e, 0x75, 0x66, 0x59, 0xc0, 0x97, 0x63, 0x48, 0x40,
 0x06, 0x0b, 0x8c, 0xc0, 0x7d, 0x00, 0x73, 0x40, 0x50, 0xdb, 0x38, 0xbc,
 0x95, 0x3b, 0x8c, 0xc0, 0xf6, 0x95, 0x39, 0x40, 0x72, 0xde, 0x2d, 0xc0,
 0x7e, 0xe2, 0x59, 0x3a, 0xb8, 0x2d, 0x12, 0x41, 0xab, 0x1b, 0x1a, 0x40,
 0x72, 0x3f, 0xcb, 0xc0, 0x31, 0x06, 0x0a, 0xc1, 0xf8, 0xa3, 0xd2, 0x40,
 0x45, 0xdb, 0x87, 0x40, 0x12, 0x40, 0x8d, 0xc0, 0x03, 0xe0, 0x20, 0x3f,
 0x0f, 0x84, 0xfe, 0xc0, 0x92, 0xec, 0x58, 0xbb, 0x7d, 0xb9, 0xad, 0xbd,
 0x2f, 0xd0, 0x9b, 0x40, 0x52, 0xe2, 0xb1, 0xc0, 0xb5, 0x58, 0xb9, 0xbe,
 0x5a, 0xcd, 0xca, 0x40, 0x03, 0xf5, 0x58, 0x3a, 0x5e, 0x3b, 0xc6, 0xc0,
 0xa3, 0x5b, 0xb7, 0xbf, 0x5b, 0xc3, 0x1b, 0x41, 0x53, 0x00, 0xac, 0x40,
 0xb8, 0xa6, 0xf8, 0xc0, 0xe6, 0xc5, 0x06, 0xc0, 0x2e, 0x75, 0x6d, 0x3e,
 0xd2, 0x13, 0xd7, 0x40, 0x11, 0x68, 0xd5, 0xbf, 0xea, 0x72, 0x32, 0x3a,
 0x55, 0xc2, 0xb1, 0x3f, 0xb1, 0x5b, 0x8d, 0x40, 0x9f, 0x30, 0x66, 0x39,
 0xf2, 0x22, 0x41, 0x40, 0xc7, 0x12, 0xe1, 0xbf, 0xc9, 0x6c, 0x59, 0x3e,
 0x5d, 0x7e, 0x1f, 0x3a, 0x87, 0xc0, 0xf3, 0xc0, 0x74, 0x34, 0x86, 0xc0,
 0x75, 0x7f, 0x5f, 0xbb, 0xed, 0x46, 0x92, 0x40, 0xab, 0x31, 0x3e, 0x40,
 0xc0, 0x76, 0x4b, 0x41, 0xec, 0xfb, 0x90, 0xc0, 0x38, 0xaa, 0x88, 0x40,
 0x29, 0x08, 0xc1, 0x40, 0x26, 0x32, 0x35, 0xc0, 0xab, 0xd2, 0x13, 0x41,
 0xb3, 0x9b, 0xda, 0xc0, 0xa6, 0xfe, 0x23, 0x39, 0xfd, 0x14, 0xd4, 0xc0,
 0x3f, 0x9e, 0x70, 0xbc, 0xd2, 0xdd, 0x70, 0xc1, 0x9c, 0xac, 0x2b, 0x41,
 0xb8, 0x2d, 0x65, 0x41, 0x56, 0x5d, 0x22, 0x40, 0xf0, 0x3a, 0x12, 0x3a,
 0x78, 0x1f, 0x7e, 0x3e, 0x3a, 0xf1, 0x69, 0x40, 0x07, 0x04, 0xc3, 0xc0,
 0xb5, 0x86, 0x0d, 0xc1, 0x14, 0xb7, 0x57, 0x3f, 0x9e, 0x28, 0x90, 0x40,
 0x70, 0xbf, 0x4a, 0x3b, 0x1c, 0xaf, 0x93, 0x41, 0x50, 0x04, 0xa1, 0x3f,
 0xa7, 0x24, 0x14, 0xc1, 0x55, 0x53, 0x30, 0xbb, 0x80, 0xf4, 0x8d, 0x41,
 0x71, 0xef, 0x0a, 0x41, 0xba, 0x68, 0x40, 0x41, 0x4c, 0x56, 0xcc, 0x3f,
 0xa7, 0x11, 0xe2, 0xbf, 0x4c, 0xb4, 0x2c, 0xbf, 0xf8, 0xab, 0x0b, 0xc0,
 0x60, 0xd2, 0x39, 0x3f, 0x25, 0x39, 0xf3, 0x3d, 0x66, 0x2f, 0xb3, 0xba,
 0xbf, 0xe2, 0xa0, 0xc0, 0x4b, 0x5e, 0x14, 0x40, 0xc6, 0x20, 0xd1, 0xc0,
 0x2b, 0xac, 0x55, 0x40, 0x31, 0xa9, 0xde, 0x40, 0x95, 0x40, 0x1d, 0xbb,
 0x84, 0xc6, 0x6a, 0x40, 0xdb, 0xd5, 0x00, 0xc1, 0x79, 0x3b, 0x22, 0x41,
 0x0e, 0x98, 0x58, 0x40, 0x41, 0xb4, 0x9b, 0xbc, 0xe5, 0x00, 0x86, 0x3f,
 0xbd, 0xdb, 0x47, 0xc1, 0x11, 0x39, 0x6c, 0xc0, 0xd7, 0xe4, 0x40, 0x3f,
 0x9a, 0x13, 0xaf, 0xba, 0x11, 0x9b, 0x86, 0x3e, 0xd4, 0x9f, 0x3c, 0xc1,
 0xac, 0x2b, 0xa7, 0xba, 0x78, 0xb1, 0x3d, 0xc1, 0xd4, 0x8b, 0x27, 0x40,
 0xa8, 0x92, 0xdb, 0x3f, 0x73, 0x6c, 0x18, 0xbb, 0xac, 0x29, 0xd4, 0x40,
 0xa8, 0x3f, 0x98, 0x40, 0xcc, 0xda, 0xd7, 0xba, 0x8a, 0xa3, 0x4c, 0x40,
 0xb0, 0xad, 0x26, 0xc0, 0xeb, 0x98, 0x3c, 0x3f, 0x8a, 0x8f, 0xbc, 0x40,
 0xde, 0x82, 0x07, 0x40, 0x2f, 0x71, 0x8c, 0x3f, 0xad, 0x09, 0x8a, 0xbb,
 0xd3, 0x38, 0x3c, 0x41, 0xfd, 0x87, 0x9f, 0x3f, 0xfb, 0x82, 0x5c, 0xbb,
 0xfe, 0xbd, 0x93, 0xbe, 0x28, 0x13, 0xf7, 0xb9, 0x24, 0xe9, 0xcb, 0x40,
 0x92, 0x10, 0xbd, 0x3d, 0x05, 0xbf, 0x5f, 0xbf, 0xc6, 0x6a, 0x90, 0xc0,
 0xb4, 0xc0, 0x3e, 0xbb, 0x71, 0xed, 0xe6, 0xc0, 0xb1, 0x48, 0x47, 0xc0,
 0x44, 0x84, 0xaa, 0x3f, 0x1b, 0x7d, 0xf1, 0x40, 0x87, 0x55, 0x53, 0x41,
 0x69, 0xd5, 0x72, 0x41, 0xaf, 0xa1, 0x0a, 0x3b, 0xdd, 0x5f, 0x49, 0x40,
 0x31, 0xd8, 0x01, 0x41, 0xa8, 0xfe, 0xa7, 0xc1, 0xef, 0xc2, 0x52, 0xbb,
 0xf1, 0x63, 0xa3, 0x40, 0x59, 0x6c, 0x28, 0x41, 0x36, 0xf2, 0x92, 0x41,
 0x74, 0x8d, 0x82, 0x41, 0x12, 0x71, 0x02, 0xc1, 0x03, 0xc2, 0x95, 0xbf,
 0x81, 0x16, 0x0b, 0xc1, 0x03, 0xfc, 0xd1, 0x3f, 0x43, 0x06, 0x01, 0xc0,
 0xb4, 0x62, 0xa6, 0xba, 0x15, 0x61, 0x4e, 0xc1, 0xf2, 0xa4, 0x9f, 0xbf,
 0xe1, 0x6e, 0x01, 0xc1, 0x65, 0x20, 0xe5, 0x3f, 0x5e, 0xbb, 0x8e, 0xbf,
 0xc1, 0x0c, 0xef, 0xba, 0xb6, 0xee, 0x6b, 0xc1, 0xdc, 0x9f, 0x7e, 0xc1,
 0x66, 0x40, 0xc2, 0x40, 0x24, 0xcc, 0xe6, 0xc0, 0x36, 0xa1, 0x3b, 0x41,
 0xa5, 0x2e, 0x3b, 0xc1, 0xcd, 0x9e, 0x12, 0xbf, 0x20, 0x33, 0x9d, 0xc0,
 0x2e, 0x18, 0xa4, 0x40, 0xf6, 0x8b, 0xa3, 0xba, 0xe1, 0xdb, 0xae, 0xc0,
 0xb8, 0xd1, 0x08, 0xbe, 0xf2, 0x55, 0x90, 0xba, 0xfb, 0x39, 0x50, 0xc0,
 0x50, 0x00, 0x8e, 0x3e, 0xe3, 0x51, 0x2f, 0x41, 0x80, 0x11, 0x19, 0xbb,
 0xbc, 0x21, 0x2a, 0x41, 0xed, 0x8b, 0x30, 0xc0, 0x06, 0xb9, 0xfd, 0xba,
 0x4f, 0xfe, 0xda, 0xc0, 0x6c, 0x31, 0x0c, 0x40, 0x19, 0x44, 0x94, 0xc0,
 0x46, 0x69, 0x2a, 0x41, 0xee, 0x1f, 0x3f, 0x40, 0xc3, 0xf1, 0xfb, 0xc0,
 0xca, 0xbc, 0x04, 0x40, 0x45, 0x18, 0xf5, 0x40, 0x25, 0xda, 0x79, 0x40,
 0x0f, 0xb9, 0x22, 0xbb, 0xec, 0x77, 0x53, 0x3f, 0x49, 0x9a, 0x06, 0x3b,
 0x87, 0xa3, 0x17, 0x41, 0xa5, 0xad, 0x7c, 0xbf, 0xc8, 0x19, 0xba, 0xc0,
 0xee, 0x3a, 0x82, 0x40, 0xb1, 0x69, 0x36, 0xbb, 0x51, 0xa6, 0xe1, 0x40,
 0xda, 0xff, 0x3d, 0x40, 0xad, 0xb0, 0x0e, 0x41, 0xa2, 0xf6, 0x4d, 0x41,
 0x5e, 0x9c, 0xd0, 0x3e, 0x79, 0x1c, 0x63, 0xc1, 0xa5, 0x11, 0x46, 0x3c,
 0x6b, 0x70, 0x77, 0xc1, 0x58, 0x59, 0xfa, 0xc0, 0xfe, 0xa3, 0x26, 0x41,
 0xcb, 0x35, 0x14, 0x3a, 0x41, 0x0b, 0x14, 0xc1, 0x3c, 0xc9, 0x0e, 0xc1,
 0xac, 0x18, 0x2a, 0xc1, 0x8e, 0x01, 0x2a, 0xc1, 0x6d, 0xc8, 0x62, 0x41,
 0xc8, 0x12, 0xab, 0x41, 0x0a, 0xf4, 0x17, 0x41, 0x25, 0xfc, 0x7a, 0xc0,
 0x8a, 0x2e, 0xb2, 0xc0, 0xe7, 0x6d, 0xbd, 0xba, 0x9d, 0x34, 0x64, 0x41,
 0xdf, 0x51, 0x4a, 0xc0, 0xb9, 0x7e, 0x95, 0x41, 0xe2, 0xdb, 0x55, 0xc1,
 0x6d, 0x94, 0x14, 0xc1, 0xbd, 0xac, 0xa0, 0x39, 0xba, 0x61, 0x74, 0x41,
 0x67, 0x85, 0x3e, 0x41, 0x16, 0x52, 0xb7, 0xc1, 0x5d, 0xb5, 0x3d, 0x41,
 0x6d, 0x47, 0x42, 0x40, 0xa4, 0xa5, 0x93, 0x41, 0x2b, 0x20, 0x8b, 0x41,
 0xa7, 0x35, 0x10, 0x41, 0x8a, 0x82, 0x68, 0xc1, 0x7a, 0xd6, 0x61, 0x39,
 0x01, 0x68, 0x10, 0x41, 0x4f, 0xa3, 0xfc, 0x3f, 0x18, 0x57, 0x2c, 0x39,
 0xec, 0xa5, 0x5b, 0xc0, 0x60, 0x2f, 0x07, 0x41, 0x09, 0xda, 0xd6, 0xc0,
 0xd0, 0x6a, 0x67, 0x3a, 0x91, 0xec, 0x62, 0x3e, 0x75, 0x95, 0x2f, 0xc0,
 0x8b, 0x46, 0xf1, 0xba, 0x11, 0x57, 0x6d, 0xc1, 0xc9, 0x01, 0x0b, 0xc1,
 0xc1, 0xb3, 0x4e, 0xc1, 0x1b, 0x96, 0x89, 0xc1, 0xaf, 0x9e, 0x2b, 0x3f,
 0xe6, 0xb8, 0x27, 0x41, 0xdb, 0x52, 0x67, 0xc0, 0xf1, 0x38, 0x81, 0xc1,
 0x63, 0x5e, 0x74, 0xc1, 0xcc, 0xe8, 0x56, 0x3a, 0xc0, 0x3b, 0xe7, 0xbf,
 0x45, 0x21, 0x04, 0x3c, 0x7f, 0xab, 0xba, 0xc0, 0x5c, 0xdf, 0x8d, 0x41,
 0xb4, 0xd6, 0xcb, 0x40, 0xfd, 0xfb, 0xd8, 0x40, 0x19, 0x83, 0xc3, 0x39,
 0xa7, 0xab, 0x0b, 0xc0, 0x0e, 0x45, 0x81, 0xc0, 0x5a, 0x40, 0xd2, 0xc0,
 0x77, 0x8c, 0xd4, 0xbd, 0x9b, 0x34, 0xf8, 0xc0, 0xf1, 0x97, 0x32, 0x41,
 0xa9, 0x22, 0x1b, 0x3c, 0x0c, 0xfa, 0x74, 0x41, 0xbe, 0x8b, 0x1e, 0x41,
 0x63, 0xbd, 0x33, 0xc1, 0xc5, 0xe1, 0xeb, 0x3a, 0xf3, 0xdb, 0x92, 0xbf,
 0xde, 0xab, 0x3e, 0x41, 0x5c, 0xa2, 0x04, 0xbf, 0x4c, 0x1e, 0x7a, 0x41,
 0x3e, 0x4f, 0xab, 0x40, 0xa9, 0x36, 0xa0, 0xc0, 0xe5, 0x38, 0x70, 0x3f,
 0x30, 0x10, 0xfa, 0x40, 0xae, 0xc1, 0x7c, 0xc1, 0x5b, 0xf7, 0xdf, 0xba,
 0xa7, 0x68, 0x44, 0x40, 0x7d, 0xd9, 0x84, 0xc1, 0x38, 0x0c, 0xd0, 0xc0,
 0xc0, 0x69, 0x9b, 0x40, 0xd4, 0x18, 0x7e, 0xbe, 0xf7, 0x67, 0xaa, 0x3a,
 0x69, 0xc0, 0x6d, 0xc1, 0xf5, 0xd3, 0x97, 0xc0, 0x0a, 0xb9, 0xa7, 0xbf,
 0xa9, 0xea, 0x87, 0xc0, 0xb3, 0x02, 0x8c, 0x40, 0xde, 0x78, 0x7a, 0xc1,
 0xed, 0xf4, 0x68, 0x40, 0x73, 0xc5, 0x1b, 0xc1, 0xc5, 0x0d, 0x9b, 0x40,
 0x71, 0xdd, 0x84, 0x39, 0xb5, 0xca, 0x25, 0xc1, 0x7f, 0xf9, 0x86, 0x40,
 0x18, 0x5c, 0x86, 0x39, 0x4b, 0x63, 0x04, 0x40, 0x2c, 0x7f, 0x0a, 0x41,
 0xd6, 0x63, 0x0e, 0x41, 0xce, 0x61, 0x09, 0xba, 0x14, 0x4e, 0xa6, 0xc0,
 0x64, 0x79, 0x0f, 0x40, 0x96, 0x58, 0x71, 0xbb, 0x74, 0xfc, 0x94, 0x40,
 0x07, 0x9e, 0x05, 0xc1, 0x10, 0xff, 0xdd, 0xc0, 0xf6, 0x12, 0x8d, 0xbf,
 0x8e, 0x2a, 0xca, 0x40, 0x1e, 0x50, 0xb3, 0x3f, 0x40, 0x50, 0x06, 0x41,
 0xcc, 0xac, 0x26, 0xc0, 0x20, 0x41, 0xed, 0xbf, 0x20, 0xfc, 0x3d, 0x3a,
 0x1a, 0x8c, 0x60, 0x41, 0x5c, 0x8b, 0x17, 0x3c, 0x99, 0xed, 0xcc, 0x40,
 0x18, 0xbf, 0xea, 0xbf, 0x44, 0x35, 0x18, 0xc1, 0xbc, 0xcc, 0xda, 0x3e,
 0xc1, 0x58, 0xdf, 0x39, 0x6c, 0xc0, 0x24, 0x40, 0x97, 0x44, 0x92, 0x3f,
 0x58, 0xfb, 0x8a, 0x40, 0x29, 0x3e, 0xfe, 0x40, 0x19, 0x98, 0x9c, 0x40,
 0x2a, 0x5b, 0x20, 0x40, 0xd4, 0x69, 0xe6, 0x3c, 0x29, 0xd9, 0x6a, 0xbf,
 0xb3, 0x24, 0x61, 0x40, 0x36, 0x54, 0x33, 0xc1, 0x55, 0x40, 0xc7, 0x3a,
 0xe5, 0xb6, 0x34, 0x41, 0xcd, 0xab, 0x0d, 0x41, 0x53, 0x7e, 0xf3, 0x40,
 0xf6, 0xa2, 0xba, 0x40, 0x4d, 0x7c, 0x34, 0xc1, 0x69, 0x5e, 0x66, 0x3f,
 0x66, 0xa0, 0x25, 0xc0, 0x30, 0x19, 0xb8, 0xbe, 0x86, 0x63, 0xeb, 0x40,
 0x93, 0x9a, 0xbe, 0x3a, 0xb4, 0x1a, 0xb6, 0xc0, 0x47, 0x11, 0x25, 0xc1,
 0x48, 0x78, 0xae, 0xbf, 0x23, 0x6f, 0xe8, 0xbd, 0x6a, 0xab, 0x36, 0x40,
 0x4d, 0x62, 0x01, 0x3a, 0x09, 0x65, 0x3a, 0xc1, 0xd6, 0x08, 0x75, 0xbd,
 0xb0, 0x7e, 0x05, 0xc0, 0x0d, 0x31, 0xf1, 0x40, 0xb7, 0x32, 0xdb, 0xbe,
 0x51, 0xac, 0xe2, 0x3f, 0x2a, 0x44, 0x6c, 0xbf, 0x30, 0x2b, 0xc9, 0xbf,
 0x41, 0x8e, 0xa5, 0xc0, 0x1b, 0xbe, 0xc3, 0x39, 0xf8, 0xa5, 0xa0, 0xbf,
 0xb7, 0xcb, 0xaf, 0x3d, 0x23, 0xb2, 0x65, 0x39, 0x3e, 0x02, 0x7c, 0x41,
 0xd4, 0xc2, 0x79, 0x40, 0x3c, 0xd5, 0xaf, 0xbd, 0x6f, 0x43, 0xef, 0x39,
 0x17, 0x77, 0x02, 0x41, 0x19, 0x6e, 0xc9, 0xbe, 0xf9, 0x59, 0x10, 0x3b,
 0x7f, 0x41, 0xc8, 0xc0, 0xd9, 0xe5, 0x64, 0x3f, 0x55, 0xb4, 0x26, 0x41,
 0x6b, 0xa9, 0xcd, 0x40, 0xec, 0x01, 0x64, 0x40, 0xed, 0x5b, 0x5d, 0xc1,
 0x99, 0xd3, 0x6e, 0x40, 0xfe, 0x04, 0x11, 0x41, 0x1f, 0x9a, 0x88, 0x40,
 0x30, 0x33, 0x33, 0x3a, 0x4c, 0xb8, 0x86, 0x3e, 0x14, 0x30, 0x31, 0x3d,
 0xa3, 0xae, 0x84, 0xbf, 0x47, 0xc8, 0xa2, 0xc0, 0x3e, 0xce, 0xe5, 0xc0,
 0x02, 0x11, 0x5e, 0xc1, 0x42, 0x94, 0x63, 0x3a, 0x11, 0xf4, 0x7f, 0xbf,
 0x4f, 0x25, 0xe4, 0x40, 0xfc, 0x37, 0x25, 0x40, 0x2c, 0xd0, 0x35, 0x41,
 0x69, 0x32, 0x34, 0xc1, 0x71, 0x8d, 0x13, 0xc1, 0x5c, 0x09, 0xf1, 0x3b,
 0x96, 0x6a, 0x8a, 0xc0, 0x56, 0x70, 0x9d, 0xc0, 0xc3, 0xda, 0x32, 0x40,
 0xec, 0x23, 0x61, 0x3a, 0x66, 0xe4, 0x22, 0x40, 0xba, 0x8a, 0x34, 0x40,
 0xa2, 0x79, 0xc6, 0xbf, 0x7c, 0xfe, 0xe2, 0xc0, 0xb3, 0x7c, 0x9e, 0x40,
 0x3c, 0x45, 0xd1, 0xc0, 0x06, 0x7e, 0xdb, 0x3e, 0x38, 0x2e, 0x06, 0xc0,
 0x99, 0x80, 0x7d, 0xc0, 0xfd, 0xbb, 0xd2, 0x3b, 0x49, 0x0a, 0x34, 0xc1,
 0xe6, 0x4e, 0x4b, 0x41, 0xd0, 0x39, 0x98, 0x3e, 0xc6, 0x61, 0x05, 0x3c,
 0x48, 0x48, 0x48, 0x40, 0x02, 0x52, 0x8f, 0x36, 0x0f, 0x9c, 0xda, 0x40,
 0xa9, 0x80, 0x34, 0x41, 0x1d, 0x61, 0x3e, 0xc0, 0x0a, 0xe6, 0xfa, 0x3e,
 0x57, 0xc8, 0x78, 0xc0, 0x1a, 0x68, 0x05, 0x40, 0x3e, 0x45, 0x1c, 0xc0,
 0xa9, 0xc9, 0xe6, 0x3f, 0x40, 0x97, 0x0b, 0xc0, 0xf0, 0x33, 0x6e, 0x39,
 0x57, 0x40, 0x31, 0xc0, 0x6b, 0x03, 0x2a, 0xc1, 0xae, 0x03, 0x46, 0x39,
 0xaf, 0x55, 0x68, 0xc0, 0x1e, 0xe9, 0xa4, 0x3f, 0xd1, 0xf6, 0x64, 0x3f,
 0x07, 0xfe, 0xa8, 0xb9, 0x44, 0x5c, 0x02, 0xc1, 0x68, 0x76, 0xae, 0xc0,
 0x3b, 0x6c, 0x20, 0x3c, 0x0d, 0xd8, 0x03, 0xc0, 0x84, 0x22, 0xbd, 0xc0,
 0x6a, 0x75, 0x96, 0x3e, 0x9b, 0x0f, 0x10, 0xbf, 0xb4, 0x97, 0x0f, 0x41,
 0x1a, 0x88, 0xdc, 0xbf, 0xd4, 0x9f, 0x8c, 0xc0, 0x00, 0xb6, 0x94, 0xc0,
 0xbe, 0xf1, 0xc4, 0xc0, 0xcb, 0x21, 0x88, 0x39, 0xc9, 0xd0, 0xf5, 0xc0,
 0x0e, 0xa1, 0x2c, 0x3c, 0xdc, 0x51, 0xe1, 0xbf, 0x68, 0x3e, 0x3a, 0x3f,
 0xbc, 0x15, 0x00, 0xc1, 0x60, 0x1a, 0x01, 0x41, 0xa8, 0xca, 0x85, 0xb7,
 0x49, 0x53, 0x6a, 0x40, 0x1b, 0xd4, 0xd7, 0x40, 0xf3, 0x3c, 0x9b, 0xbf,
 0x55, 0x22, 0x68, 0xbf, 0xb9, 0x8d, 0x61, 0x41, 0x15, 0x3a, 0xd6, 0xc0,
 0x27, 0x6b, 0x63, 0x3b, 0xbe, 0x86, 0x32, 0xbf, 0x29, 0xc2, 0x0b, 0xbf,
 0xb2, 0xf7, 0x83, 0x40, 0x9f, 0x7d, 0x1b, 0xbb, 0x95, 0xf8, 0xd4, 0xc0,
 0x51, 0xbc, 0x3e, 0x41, 0x1a, 0x8f, 0x28, 0xc1, 0x95, 0xf0, 0x6c, 0xc0,
 0xa5, 0xb8, 0xa1, 0x40, 0xc2, 0xf9, 0x75, 0x3c, 0xba, 0x84, 0xb4, 0xc0,
 0x65, 0x94, 0xad, 0xc0, 0x73, 0xec, 0x06, 0xc1, 0xf8, 0x53, 0xc0, 0xba,
 0x64, 0x12, 0xd3, 0x3f, 0x01, 0xd2, 0xab, 0x3f, 0xec, 0xa4, 0x87, 0xc0,
 0x41, 0x4d, 0x19, 0x40, 0xc7, 0x4e, 0xcb, 0x40, 0x71, 0x74, 0x10, 0xbb,
 0x4a, 0x7e, 0xf7, 0xc0, 0x14, 0xb4, 0x4a, 0xc0, 0x32, 0x59, 0x03, 0x41,
 0xa0, 0x8b, 0x02, 0xc1, 0xef, 0x44, 0xb5, 0x40, 0x82, 0x18, 0xcf, 0xbf,
 0xd7, 0x36, 0x81, 0xc0, 0x71, 0x33, 0x2e, 0xc1, 0x30, 0x0b, 0xa2, 0xc0,
 0x6c, 0x0d, 0x99, 0xba, 0xf0, 0x1c, 0x89, 0x40, 0xce, 0x22, 0x3e, 0x3f,
 0x55, 0x7f, 0xed, 0xb9, 0xf6, 0x70, 0x7f, 0x41, 0x10, 0x55, 0x9d, 0x40,
 0x91, 0xb3, 0xbf, 0x40, 0x3e, 0x92, 0x46, 0xbb, 0x24, 0x60, 0x69, 0x40,
 0xa8, 0x58, 0xaa, 0x40, 0xf6, 0xed, 0x4f, 0xbb, 0x52, 0x36, 0x0f, 0x40,
 0x53, 0xdf, 0x89, 0xc0, 0xdd, 0xd2, 0x49, 0x41, 0xdd, 0xb3, 0x11, 0x41,
 0x4f, 0x20, 0x24, 0xc0, 0x8e, 0xa1, 0xbb, 0x3f, 0xf3, 0x3e, 0x8f, 0xbf,
 0xe6, 0x4b, 0x2c, 0x3f, 0x5d, 0x09, 0xe3, 0x40, 0xb8, 0x09, 0x6d, 0xbb,
 0x1b, 0x2f, 0x4f, 0x3f, 0x8b, 0x2c, 0xda, 0x3b, 0x05, 0x2e, 0x3c, 0xc1,
 0x69, 0x1a, 0x7d, 0x40, 0x5f, 0x4c, 0x27, 0x40, 0x3c, 0x9a, 0xbd, 0x40,
 0xc5, 0x0c, 0x73, 0xbb, 0x24, 0x32, 0x86, 0x40, 0x4c, 0x2b, 0x51, 0x41,
 0x88, 0xfe, 0x4a, 0xc0, 0xa4, 0xb8, 0x08, 0xc0, 0x0e, 0xca, 0x9d, 0x40,
 0xd7, 0x77, 0x21, 0x40, 0x5e, 0x69, 0xb4, 0x3a, 0x1c, 0xe8, 0x08, 0xc1,
 0x8e, 0xf1, 0xb4, 0xbe, 0xa8, 0x30, 0xf5, 0xbf, 0x34, 0x9a, 0x85, 0x3b,
 0x33, 0x84, 0x99, 0x40, 0x55, 0x67, 0x80, 0xc0, 0xfa, 0xfc, 0x78, 0x40,
 0xd8, 0x6c, 0x54, 0x40, 0x3c, 0x4a, 0x5a, 0xc1, 0xff, 0x86, 0x26, 0xc1,
 0x17, 0xc2, 0x64, 0xc1, 0xac, 0x55, 0x0f, 0x40, 0xde, 0x20, 0x01, 0xc1,
 0x31, 0x3e, 0xd3, 0x3a, 0x31, 0xf1, 0xf9, 0x3f, 0xcd, 0x0d, 0x73, 0xc1,
 0x0c, 0x4a, 0xf2, 0xc0, 0x8b, 0xca, 0x9e, 0x40, 0x4f, 0xad, 0xaf, 0x40,
 0x74, 0xe8, 0x32, 0x3b, 0xc6, 0x41, 0xc9, 0xc0, 0xb8, 0x3e, 0xf9, 0xc0,
 0xbd, 0xc9, 0x3e, 0x41, 0x73, 0x8a, 0x29, 0xc0, 0xd0, 0xea, 0xd1, 0xc0,
 0xf3, 0xe0, 0x19, 0xc0, 0x2d, 0xf2, 0x3f, 0xbf, 0x48, 0xec, 0xb7, 0x40,
 0xf6, 0x68, 0x5b, 0xc0, 0x15, 0x63, 0xb0, 0x3a, 0xfe, 0xac, 0x72, 0xc1,
 0x1f, 0x88, 0xd6, 0x40, 0x29, 0xb1, 0xf6, 0x3a, 0x71, 0x7a, 0xd0, 0x40,
 0xe6, 0xd3, 0x13, 0x41, 0x4b, 0xdc, 0x8c, 0x40, 0xf8, 0x45, 0x47, 0x3b,
 0xcd, 0xfd, 0x17, 0x41, 0x10, 0x78, 0x2a, 0x40, 0xcf, 0x0b, 0xff, 0x3a,
 0x04, 0x0a, 0x9b, 0x3f, 0xc1, 0xc8, 0x00, 0x41, 0xf9, 0xa6, 0x3f, 0xc0,
 0x94, 0xc9, 0x6d, 0x40, 0x69, 0x39, 0x16, 0x40, 0xe1, 0xbf, 0x4e, 0xc1,
 0x5f, 0x48, 0x8c, 0xc1, 0x3e, 0xc4, 0xc6, 0x40, 0x3e, 0x22, 0x6a, 0x41,
 0x50, 0x98, 0x30, 0x3b, 0xfa, 0xea, 0xad, 0xbd, 0x93, 0x73, 0xa6, 0x3a,
 0x05, 0x57, 0x33, 0xc1, 0x8c, 0x09, 0x03, 0xc0, 0x3d, 0xb4, 0x40, 0x40,
 0x4d, 0x0f, 0x09, 0xc1, 0xa3, 0x09, 0x1e, 0x3b, 0xef, 0x93, 0xc9, 0x40,
 0xbf, 0x3d, 0xcb, 0x40, 0x4e, 0xdf, 0xce, 0xc0, 0x56, 0xe0, 0x93, 0x40,
 0xab, 0xb1, 0x96, 0x41, 0xcd, 0x12, 0xb9, 0x3e, 0xdf, 0x01, 0x09, 0xbc,
 0xbd, 0x4c, 0x0f, 0x41, 0x40, 0x92, 0x86, 0x40, 0xae, 0xe7, 0xcc, 0xc0,
 0x37, 0xfc, 0x9a, 0xb9, 0x2f, 0xa3, 0x80, 0x3f, 0x71, 0xce, 0x29, 0x41,
 0x77, 0x1f, 0xf4, 0x40, 0x8e, 0x85, 0x9a, 0x40, 0x16, 0xfc, 0x03, 0xc1,
 0xcd, 0xa1, 0x4a, 0xc1, 0x72, 0xa7, 0x60, 0xc1, 0x80, 0x15, 0x2b, 0x40,
 0x21, 0x60, 0xa8, 0xc0, 0x9e, 0x4b, 0xfd, 0xbb, 0x61, 0x80, 0x99, 0xbf,
 0xb5, 0xc3, 0xff, 0xbe, 0xa1, 0x20, 0x8c, 0xc1, 0xe1, 0xa8, 0x52, 0x3f,
 0x28, 0xff, 0xd0, 0xc0, 0xc4, 0xbf, 0xa0, 0x38, 0xe5, 0x5b, 0xba, 0x3f,
 0xdd, 0x9b, 0x25, 0xc1, 0xfa, 0x89, 0x77, 0x40, 0x6b, 0x47, 0xdb, 0x40,
 0xb9, 0xd5, 0x8a, 0x40, 0xb4, 0x32, 0x34, 0xc1, 0xbe, 0x21, 0x04, 0xc1,
 0x14, 0xa5, 0xc4, 0x40, 0x31, 0x89, 0xa4, 0x40, 0xf9, 0x69, 0x2a, 0x39,
 0x48, 0xb5, 0x92, 0xc1, 0x87, 0x1f, 0x7a, 0xc0, 0xb4, 0x54, 0x02, 0xb9,
 0xa7, 0x4b, 0xc1, 0x41, 0xe8, 0x63, 0x2f, 0x40, 0x42, 0x4d, 0x03, 0x41,
 0x49, 0x42, 0x5c, 0xb8, 0x34, 0x2a, 0x34, 0x41, 0x46, 0xad, 0x87, 0xc1,
 0x9f, 0x07, 0x27, 0xbc, 0xd6, 0x5b, 0x17, 0x41, 0x5f, 0x76, 0x16, 0x40,
 0x0a, 0x86, 0x4a, 0xc0, 0xab, 0x40, 0x30, 0x41, 0xde, 0x6e, 0xc5, 0xbf,
 0x61, 0x29, 0x62, 0xc1, 0x6a, 0x4e, 0x02, 0x41, 0xeb, 0xd5, 0x15, 0x41,
 0xe0, 0x85, 0x4f, 0xc0, 0xaf, 0xb0, 0x35, 0x39, 0x4d, 0x45, 0x56, 0xbe,
 0x6f, 0x50, 0x84, 0xbb, 0x9b, 0xc8, 0x8d, 0xc0, 0xe0, 0x2c, 0x0d, 0xc1,
 0x32, 0xba, 0x03, 0x41, 0x51, 0x43, 0x0b, 0xc1, 0x29, 0x6d, 0xfe, 0xb8,
 0xc6, 0x88, 0x06, 0xc0, 0x6c, 0x00, 0x31, 0x41, 0x1f, 0x64, 0xe5, 0xc0,
 0xf7, 0xde, 0x45, 0xbf, 0xe0, 0x72, 0xb5, 0xbf, 0x0a, 0xae, 0x1c, 0x41,
 0x1b, 0x04, 0xe5, 0x39, 0xb2, 0xe4, 0x92, 0x41, 0xcd, 0xd5, 0x30, 0x41,
 0xdd, 0x11, 0xc3, 0xc1, 0x37, 0xb7, 0x2c, 0xbb, 0x43, 0x41, 0xc7, 0x40,
 0xa2, 0xc6, 0x6f, 0x41, 0x1a, 0x40, 0xba, 0x40, 0xeb, 0x52, 0x8c, 0x41,
 0x0d, 0x2c, 0xd3, 0x3e, 0xaa, 0xd9, 0x4b, 0xc1, 0x38, 0x61, 0x20, 0xc1,
 0x7e, 0x09, 0xb7, 0x40, 0x44, 0x42, 0x7c, 0x41, 0xf4, 0x0c, 0x0c, 0xba,
 0xa3, 0x00, 0x1b, 0xc1, 0x51, 0x33, 0x0d, 0x3f, 0x23, 0x1c, 0x8b, 0xc1,
 0x24, 0xc2, 0x08, 0x40, 0x2b, 0x53, 0x72, 0x41, 0x99, 0x27, 0xb1, 0xba,
 0x34, 0xc0, 0x78, 0xc1, 0x35, 0xd4, 0xcb, 0xc0, 0xa0, 0x2e, 0x21, 0x41,
 0xe3, 0x6e, 0x0f, 0xc1, 0x5e, 0x5c, 0x2a, 0x41, 0xa9, 0x76, 0xbb, 0xc1,
 0x4d, 0x56, 0x48, 0xc1, 0x86, 0x06, 0x87, 0xc0, 0xc4, 0x5a, 0xba, 0xbf,
 0x7a, 0x2c, 0x84, 0xba, 0x16, 0x5e, 0xed, 0xc0, 0x0a, 0xad, 0xa2, 0xc0,
 0x97, 0xbe, 0x67, 0xba, 0x1b, 0xe3, 0x91, 0x40, 0x06, 0x8c, 0x08, 0x40,
 0x31, 0x98, 0x31, 0x41, 0x03, 0x43, 0xc1, 0xba, 0xe6, 0xf9, 0xaa, 0xbe,
 0x0f, 0x99, 0x54, 0x40, 0x54, 0x13, 0xaf, 0xba, 0x64, 0xb4, 0x65, 0x41,
 0x2f, 0x10, 0x72, 0xc0, 0x52, 0x7f, 0xe1, 0x40, 0x02, 0x3e, 0x20, 0xc0,
 0x90, 0x47, 0x00, 0x40, 0x94, 0x55, 0x86, 0xc1, 0x56, 0xce, 0x79, 0xc0,
 0x04, 0xba, 0x8a, 0x41, 0x98, 0x9a, 0xdb, 0xbe, 0x24, 0xc0, 0xb5, 0xba,
 0xcd, 0x86, 0xb9, 0x40, 0xb3, 0x88, 0xba, 0x38, 0x9b, 0xb4, 0x6a, 0x41,
 0x73, 0x41, 0x85, 0xbf, 0x52, 0xec, 0xb1, 0xbf, 0x1d, 0x41, 0x68, 0xc1,
 0xdd, 0x2a, 0x0b, 0xbb, 0xc8, 0x35, 0x3f, 0x41, 0xba, 0x59, 0x0a, 0x41,
 0x64, 0x1a, 0x2e, 0x41, 0xa9, 0xba, 0x89, 0x41, 0xf0, 0xb1, 0x26, 0x40,
 0x5f, 0x62, 0x74, 0x41, 0x13, 0xcf, 0xc6, 0xbc, 0xe7, 0x8e, 0x86, 0x40,
 0xb7, 0xda, 0xa3, 0x40, 0x65, 0x77, 0x2e, 0xc1, 0x50, 0x58, 0x85, 0xb9,
 0x6a, 0x4d, 0x7d, 0xc0, 0x80, 0x1e, 0x52, 0x41, 0x8c, 0x55, 0x08, 0x41,
 0x24, 0x0b, 0x56, 0x40, 0xc4, 0xc8, 0x32, 0xc1, 0x0e, 0x0f, 0x58, 0xc1,
 0x29, 0x65, 0x18, 0xc1, 0x55, 0x96, 0x15, 0x41, 0xd1, 0x17, 0x1a, 0x41,
 0x1c, 0xbc, 0x6c, 0xba, 0xa5, 0x03, 0x70, 0x40, 0xa4, 0x74, 0x85, 0xbf,
 0xb9, 0x5b, 0xc0, 0xc0, 0x5a, 0xad, 0x48, 0x41, 0x24, 0xd8, 0x94, 0x41,
 0x33, 0xd8, 0x9c, 0xb9, 0x77, 0xa8, 0x14, 0xc1, 0x08, 0xa7, 0xd6, 0xbf,
 0x3e, 0x96, 0x0a, 0x41, 0x93, 0x65, 0xcb, 0xc0, 0x63, 0x61, 0xe4, 0x3f,
 0xee, 0x2e, 0x16, 0xc1, 0x01, 0x98, 0xf6, 0xc0, 0x03, 0xe5, 0x2b, 0x3f,
 0xc9, 0x94, 0x12, 0x3f, 0x2f, 0xaf, 0x76, 0x38, 0x71, 0x24, 0xab, 0xbe,
 0x00, 0x30, 0x0c, 0x40, 0xea, 0x2f, 0x3b, 0xb9, 0x36, 0xca, 0x23, 0x40,
 0x5e, 0x1f, 0xac, 0xbf, 0x0f, 0x3a, 0xec, 0xc0, 0x22, 0x08, 0xe8, 0xb9,
 0x5c, 0x4b, 0xd9, 0x3e, 0xa1, 0xbd, 0xb2, 0xc0, 0xb5, 0xd7, 0xdd, 0xba,
 0x03, 0x6c, 0x0d, 0xc0, 0x3c, 0xaf, 0x09, 0xc1, 0x76, 0x73, 0xc1, 0x40,
 0xc0, 0xde, 0x27, 0x41, 0x55, 0x37, 0x8b, 0x40, 0x6d, 0x0f, 0x13, 0x3f,
 0x47, 0xbe, 0xae, 0xc0, 0xfe, 0xc9, 0x0f, 0x41, 0x38, 0x36, 0x1d, 0x41,
 0x28, 0xdb, 0x1f, 0xb8, 0x55, 0xb6, 0xd1, 0x40, 0x4f, 0xcf, 0x1b, 0xbd,
 0x72, 0x84, 0x13, 0xc1, 0x64, 0x27, 0x2d, 0x41, 0xbf, 0xca, 0xa2, 0xbf,
 0x8c, 0x8e, 0xbb, 0xc1, 0x42, 0xb5, 0x80, 0x39, 0x5d, 0xd4, 0x85, 0x40,
 0xfb, 0x3e, 0x33, 0x41, 0x36, 0x98, 0xa2, 0x40, 0x40, 0xf5, 0xd3, 0x40,
 0xcd, 0xe3, 0xab, 0x41, 0x55, 0x1e, 0x3f, 0x41, 0xb5, 0x47, 0x0b, 0xbc,
 0xdb, 0x2c, 0x0b, 0x41, 0xf1, 0x68, 0xb5, 0x40, 0xfa, 0xc2, 0x51, 0xc1,
 0x61, 0xa4, 0xd0, 0x39, 0xd0, 0x8f, 0xa7, 0xc0, 0xb7, 0x82, 0x6e, 0x41,
 0x7a, 0x40, 0x32, 0x40, 0x30, 0x4e, 0x24, 0x40, 0xe9, 0x59, 0x80, 0x40,
 0x9a, 0x11, 0xd3, 0xc0, 0x38, 0xde, 0x5e, 0xc1, 0xcb, 0x5f, 0x2c, 0xbf,
 0xf0, 0xae, 0x3e, 0xc0, 0x40, 0x60, 0xea, 0xbb, 0x8d, 0x87, 0x07, 0xc1,
 0x60, 0x22, 0xb2, 0x3f, 0x6f, 0x02, 0x94, 0x40, 0x6e, 0xb4, 0x2a, 0x41,
 0xf4, 0xa1, 0x6d, 0x40, 0x7b, 0x11, 0x24, 0x3a, 0x67, 0xaa, 0x87, 0xbf,
 0x28, 0x37, 0x83, 0xc1, 0x0c, 0x1e, 0x1c, 0x41, 0x41, 0x6f, 0x32, 0xc0,
 0x66, 0x32, 0xa1, 0xc0, 0x97, 0x74, 0x6f, 0x40, 0x5c, 0x22, 0xa3, 0xbf,
 0x17, 0x7e, 0xc7, 0xc0, 0xc0, 0xcb, 0x88, 0xc0, 0xe2, 0xe1, 0x93, 0x39,
 0x0a, 0x03, 0xe8, 0xc0, 0xca, 0xb2, 0x22, 0x40, 0x44, 0xb4, 0x29, 0xb8,
 0x4f, 0x0b, 0x53, 0x41, 0x96, 0xb6, 0xb8, 0x3f, 0x67, 0x21, 0x05, 0x41,
 0x8e, 0x69, 0x05, 0xba, 0xd6, 0x05, 0xfe, 0x3d, 0xd9, 0xcd, 0x8f, 0xc1,
 0x40, 0x98, 0x1a, 0xbc, 0x7b, 0xe1, 0x8f, 0xc0, 0x44, 0x33, 0x29, 0xc1,
 0x82, 0x2a, 0x83, 0x41, 0x61, 0xb4, 0x98, 0x40, 0xf6, 0x68, 0xe7, 0xc0,
 0x37, 0x64, 0x9f, 0xc1, 0x82, 0x30, 0x9a, 0x40, 0xc9, 0xb5, 0x1e, 0x41,
 0x89, 0xb2, 0xb3, 0x40, 0x82, 0x4f, 0x10, 0xba, 0x46, 0x89, 0xad, 0x40,
 0x5e, 0x9d, 0xd3, 0xbb, 0xeb, 0xb8, 0x3d, 0xbd, 0x70, 0x98, 0x27, 0x41,
 0x19, 0x52, 0xa2, 0xc0, 0x89, 0xba, 0x81, 0xc0, 0xa0, 0xf8, 0x0a, 0x39,
 0x2b, 0xa9, 0x01, 0x41, 0xbb, 0x4e, 0xf7, 0xc0, 0xd5, 0xf4, 0xb6, 0xbf,
 0x7f, 0x94, 0x9d, 0xbe, 0x01, 0xa6, 0x93, 0xc0, 0xa7, 0xa7, 0x23, 0xc1,
 0x7c, 0x91, 0x97, 0xbb, 0x53, 0xce, 0xce, 0xc0, 0xd9, 0xfd, 0xb5, 0x3f,
 0xde, 0x55, 0x0f, 0x41, 0x96, 0xfd, 0xba, 0x3a, 0x76, 0x7c, 0x13, 0xc1,
 0xfc, 0x61, 0xd0, 0xbf, 0xf3, 0xda, 0x19, 0xc1, 0xf2, 0x86, 0x45, 0x41,
 0xf3, 0xac, 0x70, 0x3f, 0xe4, 0x33, 0x91, 0x40, 0xf4, 0x3e, 0x6e, 0x40,
 0x7f, 0x14, 0x76, 0x3f, 0x32, 0x93, 0xc0, 0xc0, 0x84, 0x48, 0x51, 0xbb,
 0xdf, 0xa6, 0xad, 0x3f, 0x41, 0x0d, 0x96, 0x40, 0xad, 0x27, 0x7f, 0xc0,
 0xe3, 0x2b, 0x27, 0xc1, 0xed, 0x7f, 0xd4, 0xc0, 0x96, 0xdd, 0x45, 0x3a,
 0x5d, 0xb4, 0x09, 0xc0, 0xc7, 0x74, 0xcc, 0x40, 0xb7, 0xd2, 0x0c, 0xc0,
 0x5e, 0xa1, 0x29, 0x41, 0x6f, 0x7c, 0x4b, 0x3f, 0x95, 0x78, 0x5c, 0x41,
 0x22, 0x99, 0x6e, 0x41, 0xf0, 0x30, 0x88, 0xc0, 0xbc, 0x49, 0x15, 0x40,
 0xc4, 0x9b, 0xf3, 0x39, 0xa2, 0xe1, 0x87, 0x41, 0xa4, 0x35, 0x89, 0x41,
 0x32, 0x0f, 0xd6, 0x39, 0xa1, 0x87, 0x72, 0xc0, 0x64, 0xbc, 0x4b, 0xc0,
 0x26, 0xd0, 0x9e, 0xc0, 0x06, 0x6a, 0x02, 0x3a, 0xbb, 0x67, 0xa4, 0xc0,
 0xfc, 0xb9, 0x2d, 0x41, 0x5b, 0xa3, 0x92, 0xbb, 0x15, 0x52, 0xb1, 0xbe,
 0xa3, 0x37, 0x0f, 0xc0, 0xbe, 0x42, 0xde, 0xbf, 0x96, 0x62, 0xa6, 0xc0,
 0xcb, 0x5e, 0x34, 0x40, 0x2d, 0x63, 0xac, 0x40, 0x8a, 0x80, 0x2d, 0x40,
 0x8c, 0xc1, 0xd1, 0xc0, 0x2c, 0x05, 0x5b, 0xc0, 0x9a, 0x23, 0x04, 0x3b,
 0xc4, 0x56, 0x83, 0x40, 0x8a, 0x30, 0x0a, 0xbc, 0xf8, 0x40, 0x98, 0x3f,
 0xde, 0xcf, 0x20, 0x40, 0xc8, 0xa3, 0x38, 0x3f, 0x38, 0xb0, 0xcc, 0xc0,
 0x0d, 0x77, 0x82, 0x3a, 0xe1, 0x95, 0x02, 0x41, 0xa0, 0x97, 0xf3, 0xbf,
 0x70, 0x09, 0xbb, 0xc0, 0x68, 0x58, 0x33, 0xc0, 0xdc, 0x2f, 0xa4, 0x40,
 0xec, 0xe0, 0xb3, 0x40, 0x45, 0xd5, 0xe3, 0x39, 0xe4, 0x4c, 0x70, 0x41,
 0xe8, 0x85, 0x04, 0xc1, 0x9d, 0xe0, 0xf1, 0xbf, 0x99, 0x05, 0x12, 0x3b,
 0x50, 0xfc, 0x4e, 0x41, 0xb7, 0x2d, 0x9c, 0x40, 0x31, 0x1f, 0x11, 0xc0,
 0xa4, 0x25, 0x45, 0xc0, 0x6d, 0x1f, 0x85, 0xc1, 0xe1, 0x5f, 0xd2, 0xc0,
 0x3a, 0x78, 0x71, 0xc1, 0xdf, 0xcc, 0x40, 0x3f, 0x46, 0xc8, 0x13, 0x41,
 0x28, 0xdb, 0x9d, 0x3b, 0xd2, 0xaf, 0x5e, 0xc1, 0x9c, 0xc5, 0x87, 0xc0,
 0xf1, 0x55, 0x05, 0xc1, 0x0f, 0x04, 0x0c, 0x40, 0xfc, 0x81, 0xc7, 0x40,
 0xf0, 0xe7, 0x9c, 0x39, 0xe9, 0x39, 0x2f, 0xc1, 0x27, 0x50, 0xa5, 0x3f,
 0x02, 0x15, 0xe7, 0x40, 0xb0, 0x41, 0x9f, 0xc1, 0xc2, 0x9a, 0x9f, 0xc0,
 0x37, 0x41, 0xff, 0x3f, 0x2c, 0xf8, 0x89, 0xc0, 0xe4, 0xd9, 0x12, 0x41,
 0x31, 0xab, 0x0a, 0xbf, 0x75, 0x7e, 0x31, 0x38, 0x67, 0xb6, 0xa5, 0xc1,
 0x3d, 0xf5, 0x42, 0x40, 0x92, 0xa5, 0x15, 0xba, 0xde, 0x66, 0xe0, 0x3e,
 0xf3, 0xeb, 0x4a, 0x3f, 0xe0, 0xac, 0x2d, 0xc1, 0x9e, 0xea, 0x05, 0xba,
 0xaa, 0x7c, 0x29, 0x41, 0x3b, 0xfb, 0x0b, 0xc1, 0x5d, 0x6e, 0xa7, 0x3b,
 0x48, 0xf9, 0xcf, 0x40, 0x2f, 0xfb, 0xec, 0x40, 0x51, 0x56, 0x4b, 0x41,
 0x02, 0xea, 0x51, 0x40, 0x88, 0xd1, 0x38, 0xc0, 0xf8, 0xe8, 0xee, 0xc0,
 0xe5, 0x84, 0xb8, 0x40, 0x61, 0xeb, 0x8f, 0x40, 0xfa, 0xc2, 0x4d, 0x40,
 0xc0, 0xfe, 0x61, 0x3a, 0x38, 0xfd, 0x96, 0x40, 0x0a, 0x9e, 0x03, 0x3b,
 0x10, 0x1f, 0x12, 0xc2, 0x2d, 0x7f, 0x95, 0xbf, 0x10, 0x41, 0x02, 0xc0,
 0xa8, 0x13, 0x1e, 0x41, 0xcf, 0x7d, 0x35, 0x39, 0x2f, 0x21, 0x3e, 0x40,
 0xc8, 0xb4, 0x91, 0xc0, 0x48, 0x80, 0xca, 0xc0, 0xe5, 0xa1, 0x31, 0x41,
 0x6e, 0xb1, 0x47, 0x41, 0xcf, 0xd1, 0x25, 0x41, 0x8e, 0x98, 0x2f, 0xbc,
 0x65, 0xb7, 0x87, 0xc0, 0x92, 0xf9, 0x18, 0x40, 0x0b, 0xf5, 0xca, 0x3e,
 0xdb, 0x0c, 0x82, 0x3a, 0xcb, 0xb4, 0x79, 0x41, 0x4b, 0x26, 0xcc, 0x40,
 0x28, 0x75, 0x93, 0x41, 0xa7, 0x17, 0x8d, 0x3f, 0x74, 0x77, 0x28, 0xc1,
 0x11, 0x29, 0x84, 0x40, 0xf2, 0xa3, 0x31, 0xc1, 0xc1, 0xc7, 0x06, 0x40,
 0x82, 0x1c, 0x18, 0x41, 0x2a, 0xb0, 0xd7, 0x3a, 0xc8, 0x58, 0x2e, 0xc1,
 0xa9, 0xa0, 0x1c, 0xc0, 0xb1, 0x30, 0xcf, 0xbf, 0xd1, 0xe5, 0xfe, 0x40,
 0xce, 0x2e, 0x43, 0x40, 0x72, 0xdf, 0x55, 0x3a, 0x23, 0x0d, 0x5f, 0xc1,
 0x95, 0x5e, 0x0d, 0xc0, 0xd6, 0xa1, 0x49, 0x41, 0xaf, 0xbf, 0xba, 0x40,
 0xfc, 0x76, 0x45, 0x40, 0xc8, 0xb9, 0xe6, 0x40, 0x5b, 0x45, 0x34, 0xc1,
 0x54, 0x93, 0xa4, 0x3f, 0xed, 0x98, 0x1d, 0x41, 0x67, 0x43, 0x3d, 0x3a,
 0xcd, 0x4b, 0x48, 0x40, 0x3f, 0xa0, 0x18, 0x41, 0x3f, 0x2d, 0x57, 0x3a,
 0xc0, 0xd8, 0x9f, 0x40, 0x2f, 0x17, 0x6a, 0x41, 0x5f, 0x46, 0xf5, 0xc0,
 0x2f, 0x4b, 0x9c, 0x3a, 0x1e, 0x01, 0x9b, 0x3e, 0x01, 0x0c, 0x02, 0xbf,
 0x1d, 0x57, 0x8f, 0x3b, 0x01, 0xc4, 0xfb, 0x3f, 0xaa, 0x93, 0x0b, 0x41,
 0x0d, 0x1d, 0xbf, 0x40, 0x79, 0x69, 0x19, 0x3f, 0xde, 0x53, 0xbe, 0x40,
 0x95, 0x50, 0xb9, 0xbf, 0x0d, 0x25, 0xac, 0xc0, 0x5e, 0x84, 0xa4, 0x40,
 0xfd, 0x93, 0xf2, 0x40, 0x89, 0x7a, 0xb1, 0x39, 0x48, 0x64, 0x78, 0x40,
 0x87, 0xf2, 0x97, 0xbc, 0xf8, 0x3b, 0x9e, 0x40, 0x90, 0xae, 0x56, 0x40,
 0xd1, 0xcf, 0x7d, 0xc1, 0x4e, 0x0d, 0x84, 0xc1, 0x19, 0x00, 0x21, 0x3a,
 0xe6, 0xb2, 0x86, 0xc0, 0x6c, 0x0b, 0x8d, 0x40, 0x1f, 0x93, 0xcc, 0xbf,
 0x4d, 0x97, 0x23, 0x40, 0x42, 0xfd, 0xff, 0xff, 0x04, 0x00, 0x00, 0x00,
 0x10, 0x00, 0x00, 0x00, 0x36, 0xd6, 0x84, 0x3f, 0x55, 0x01, 0x5d, 0xc1,
 0xb1, 0x97, 0x8d, 0xbf, 0x43, 0xe0, 0x38, 0x3f, 0x5e, 0xfd, 0xff, 0xff,
 0x04, 0x00, 0x00, 0x00, 0x00, 0x02, 0x00, 0x00, 0xd2, 0x0f, 0x88, 0xbd,
 0xe3, 0xda, 0x91, 0x3e, 0xdf, 0x7a, 0x8a, 0xc0, 0x6d, 0x49, 0xf9, 0x3f,
 0x1d, 0x33, 0xbb, 0xbd, 0xe0, 0x7e, 0x4c, 0xbe, 0x96, 0xbf, 0xff, 0xbd,
 0x3b, 0x9e, 0xb1, 0x3d, 0x2a, 0x32, 0x2b, 0xbe, 0x43, 0x74, 0xb8, 0xc0,
 0xea, 0x7b, 0x1b, 0x3e, 0xa8, 0xd7, 0x09, 0xbd, 0xcf, 0xfa, 0x9c, 0xbb,
 0x1b, 0x9d, 0xd8, 0x3d, 0x57, 0x62, 0x22, 0x3e, 0x86, 0x30, 0xd3, 0xbc,
 0x3f, 0xa7, 0x48, 0x3e, 0xef, 0x8e, 0x67, 0xbd, 0xde, 0x5b, 0x66, 0xbe,
 0x1c, 0x9d, 0xf2, 0x3f, 0x62, 0xad, 0xa5, 0xbd, 0x65, 0x56, 0x5a, 0x3d,
 0x87, 0x27, 0xc2, 0xbe, 0x66, 0x1c, 0x6f, 0xbe, 0x2c, 0xb6, 0xf4, 0x3d,
 0x4c, 0x68, 0x1d, 0x3e, 0x64, 0x2b, 0x64, 0xbd, 0x0b, 0x3c, 0x46, 0xbd,
 0x76, 0x86, 0xc6, 0x3d, 0xde, 0x01, 0xb4, 0x3e, 0xb3, 0x98, 0x16, 0x3c,
 0xe9, 0x06, 0xc0, 0xbd, 0x06, 0x2c, 0x1a, 0x3f, 0x59, 0xc6, 0x07, 0xbf,
 0xdd, 0xf6, 0x39, 0xc0, 0xcd, 0x3b, 0xa5, 0x40, 0x61, 0x72, 0x04, 0x3e,
 0x5d, 0x8e, 0xb2, 0xbd, 0x3d, 0x27, 0x69, 0xbe, 0x0e, 0x6e, 0xb0, 0x3d,
 0xb1, 0x41, 0xbc, 0x3d, 0x96, 0xc3, 0x92, 0x40, 0x04, 0x14, 0xd0, 0x3d,
 0x98, 0xa9, 0xda, 0xbd, 0xf3, 0xad, 0x13, 0xbe, 0xe2, 0x4c, 0x9f, 0x3e,
 0x55, 0x91, 0x2c, 0xbc, 0x93, 0xef, 0x49, 0xbe, 0xa8, 0x97, 0x68, 0xbf,
 0x1a, 0x27, 0x49, 0xbe, 0x9a, 0xd3, 0x11, 0xbf, 0xb6, 0x6b, 0x20, 0xc2,
 0xb9, 0xc5, 0x89, 0xbe, 0x82, 0xf9, 0x8c, 0xbe, 0xbf, 0x84, 0x2c, 0xbe,
 0xfd, 0x79, 0x11, 0x3f, 0x78, 0x8d, 0x71, 0x3e, 0x60, 0xf5, 0x48, 0x3e,
 0xdb, 0x7d, 0xf6, 0xbe, 0x8d, 0x91, 0x67, 0x3d, 0xb5, 0x69, 0x4d, 0x3e,
 0xa6, 0x16, 0xfc, 0xbd, 0xb4, 0x9e, 0xbe, 0x3d, 0xce, 0xc9, 0x96, 0xbd,
 0xd9, 0x02, 0x69, 0x3e, 0xde, 0xaf, 0x85, 0xbe, 0x0c, 0xc6, 0xdf, 0x3f,
 0x83, 0xcd, 0xdc, 0xbf, 0x7b, 0xb9, 0xcf, 0xbb, 0xa1, 0xd1, 0x0b, 0xbe,
 0xff, 0xc3, 0xee, 0x3c, 0x97, 0xda, 0x15, 0xbe, 0x80, 0xd3, 0xe4, 0x3d,
 0xe7, 0x05, 0xdb, 0x3f, 0x0e, 0x6e, 0x52, 0xbc, 0x9d, 0x86, 0x06, 0x3e,
 0xad, 0xf4, 0x66, 0xbe, 0x4e, 0x3e, 0x03, 0xbe, 0xa6, 0xe6, 0x1e, 0xbb,
 0xf2, 0x0c, 0x73, 0x3d, 0xe7, 0x03, 0x27, 0xbe, 0x38, 0x16, 0x1f, 0x3e,
 0x93, 0x16, 0x85, 0x3b, 0xdc, 0xe2, 0xa4, 0xc1, 0x48, 0xee, 0x99, 0x3d,
 0x8f, 0x4e, 0x8f, 0xbe, 0xd2, 0x94, 0x86, 0x3d, 0x34, 0xcb, 0xd5, 0x3d,
 0x3f, 0xcd, 0x6a, 0xbd, 0x40, 0xd1, 0xd2, 0xbc, 0x3d, 0x3b, 0x2c, 0x3e,
 0xab, 0x9d, 0x99, 0x3d, 0x75, 0x74, 0xda, 0xbd, 0xea, 0x76, 0xe5, 0xbb,
 0xb1, 0x79, 0x08, 0x3e, 0xa4, 0xb5, 0x86, 0x3e, 0xf6, 0xef, 0x09, 0x3d,
 0xe1, 0xbd, 0x11, 0x3e, 0xb3, 0xe6, 0xdc, 0x3f, 0x41, 0x33, 0xa8, 0x3f,
 0x88, 0xf2, 0x12, 0x3e, 0xf2, 0x26, 0x2d, 0x3d, 0x73, 0xdc, 0xdc, 0xbc,
 0x10, 0x7c, 0x13, 0x3e, 0x08, 0x57, 0x2c, 0x3b, 0x14, 0x92, 0x1d, 0x40,
 0xf7, 0x93, 0xc9, 0xbc, 0x75, 0xfb, 0x39, 0xbe, 0xf0, 0xa1, 0xd2, 0x3d,
 0x27, 0xb2, 0x0e, 0xbe, 0x9f, 0x41, 0x02, 0x3c, 0xf4, 0x7c, 0x84, 0xbe,
 0x01, 0xc5, 0x05, 0x3e, 0xaf, 0x92, 0x1b, 0x3e, 0x42, 0xf8, 0x17, 0x3d,
 0xb1, 0xc1, 0x3d, 0x40, 0xae, 0xfe, 0xc2, 0xbd, 0x0d, 0x39, 0xa5, 0x3d,
 0xd6, 0xa4, 0x46, 0xbe, 0xa7, 0x20, 0x1a, 0xbe, 0x24, 0x23, 0x8d, 0xbd,
 0xf1, 0x1d, 0x14, 0x3c, 0xb0, 0x27, 0x3d, 0x3e, 0x88, 0xa4, 0x6e, 0xbe,
 0x6e, 0x5a, 0x5a, 0xbd, 0xb9, 0x55, 0xb2, 0x3e, 0xd7, 0x74, 0x88, 0x3e,
 0xfd, 0x8a, 0x1b, 0xbe, 0xb8, 0xf9, 0xff, 0xff, 0xbc, 0xf9, 0xff, 0xff,
 0x0f, 0x00, 0x00, 0x00, 0x4d, 0x4c, 0x49, 0x52, 0x20, 0x43, 0x6f, 0x6e,
 0x76, 0x65, 0x72, 0x74, 0x65, 0x64, 0x2e, 0x00, 0x01, 0x00, 0x00, 0x00,
 0x14, 0x00, 0x00, 0x00, 0x00, 0x00, 0x0e, 0x00, 0x18, 0x00, 0x14, 0x00,
 0x10, 0x00, 0x0c, 0x00, 0x08, 0x00, 0x04, 0x00, 0x0e, 0x00, 0x00, 0x00,
 0x14, 0x00, 0x00, 0x00, 0x1c, 0x00, 0x00, 0x00, 0x24, 0x01, 0x00, 0x00,
 0x28, 0x01, 0x00, 0x00, 0x2c, 0x01, 0x00, 0x00, 0x04, 0x00, 0x00, 0x00,
 0x6d, 0x61, 0x69, 0x6e, 0x00, 0x00, 0x00, 0x00, 0x04, 0x00, 0x00, 0x00,
 0xcc, 0x00, 0x00, 0x00, 0x84, 0x00, 0x00, 0x00, 0x50, 0x00, 0x00, 0x00,
 0x14, 0x00, 0x00, 0x00, 0x00, 0x00, 0x0e, 0x00, 0x1a, 0x00, 0x14, 0x00,
 0x10, 0x00, 0x0c, 0x00, 0x0b, 0x00, 0x04, 0x00, 0x0e, 0x00, 0x00, 0x00,
 0x1c, 0x00, 0x00, 0x00, 0x00, 0x00, 0x00, 0x09, 0x1c, 0x00, 0x00, 0x00,
 0x20, 0x00, 0x00, 0x00, 0x01, 0x00, 0x00, 0x00, 0x00, 0x00, 0x06, 0x00,
 0x08, 0x00, 0x04, 0x00, 0x06, 0x00, 0x00, 0x00, 0x00, 0x00, 0x80, 0x3f,
 0x01, 0x00, 0x00, 0x00, 0x0a, 0x00, 0x00, 0x00, 0x01, 0x00, 0x00, 0x00,
 0x09, 0x00, 0x00, 0x00, 0x9a, 0xff, 0xff, 0xff, 0x10, 0x00, 0x00, 0x00,
 0x00, 0x00, 0x00, 0x08, 0x0c, 0x00, 0x00, 0x00, 0x10, 0x00, 0x00, 0x00,
 0x80, 0xfa, 0xff, 0xff, 0x01, 0x00, 0x00, 0x00, 0x09, 0x00, 0x00, 0x00,
 0x03, 0x00, 0x00, 0x00, 0x08, 0x00, 0x00, 0x00, 0x01, 0x00, 0x00, 0x00,
 0x02, 0x00, 0x00, 0x00, 0xca, 0xff, 0xff, 0xff, 0x10, 0x00, 0x00, 0x00,
 0x00, 0x00, 0x00, 0x08, 0x10, 0x00, 0x00, 0x00, 0x14, 0x00, 0x00, 0x00,
 0xba, 0xff, 0xff, 0xff, 0x00, 0x00, 0x00, 0x01, 0x01, 0x00, 0x00, 0x00,
 0x08, 0x00, 0x00, 0x00, 0x03, 0x00, 0x00, 0x00, 0x07, 0x00, 0x00, 0x00,
 0x03, 0x00, 0x00, 0x00, 0x04, 0x00, 0x00, 0x00, 0x00, 0x00, 0x0e, 0x00,
 0x16, 0x00, 0x00, 0x00, 0x10, 0x00, 0x0c, 0x00, 0x0b, 0x00, 0x04, 0x00,
 0x0e, 0x00, 0x00, 0x00, 0x18, 0x00, 0x00, 0x00, 0x00, 0x00, 0x00, 0x08,
 0x18, 0x00, 0x00, 0x00, 0x1c, 0x00, 0x00, 0x00, 0x00, 0x00, 0x06, 0x00,
 0x08, 0x00, 0x07, 0x00, 0x06, 0x00, 0x00, 0x00, 0x00, 0x00, 0x00, 0x01,
 0x01, 0x00, 0x00, 0x00, 0x07, 0x00, 0x00, 0x00, 0x03, 0x00, 0x00, 0x00,
 0x00, 0x00, 0x00, 0x00, 0x06, 0x00, 0x00, 0x00, 0x05, 0x00, 0x00, 0x00,
 0x01, 0x00, 0x00, 0x00, 0x0a, 0x00, 0x00, 0x00, 0x01, 0x00, 0x00, 0x00,
 0x00, 0x00, 0x00, 0x00, 0x0b, 0x00, 0x00, 0x00, 0xa8, 0x04, 0x00, 0x00,
 0x50, 0x04, 0x00, 0x00, 0xfc, 0x03, 0x00, 0x00, 0xbc, 0x03, 0x00, 0x00,
 0x80, 0x03, 0x00, 0x00, 0x44, 0x03, 0x00, 0x00, 0xf4, 0x02, 0x00, 0x00,
 0x58, 0x02, 0x00, 0x00, 0x4c, 0x01, 0x00, 0x00, 0x60, 0x00, 0x00, 0x00,
 0x04, 0x00, 0x00, 0x00, 0x9a, 0xfb, 0xff, 0xff, 0x00, 0x00, 0x00, 0x01,
 0x14, 0x00, 0x00, 0x00, 0x1c, 0x00, 0x00, 0x00, 0x1c, 0x00, 0x00, 0x00,
 0x0b, 0x00, 0x00, 0x00, 0x34, 0x00, 0x00, 0x00, 0x02, 0x00, 0x00, 0x00,
 0xff, 0xff, 0xff, 0xff, 0x04, 0x00, 0x00, 0x00, 0x84, 0xfb, 0xff, 0xff,
 0x1b, 0x00, 0x00, 0x00, 0x53, 0x74, 0x61, 0x74, 0x65, 0x66, 0x75, 0x6c,
 0x50, 0x61, 0x72, 0x74, 0x69, 0x74, 0x69, 0x6f, 0x6e, 0x65, 0x64, 0x43,
 0x61, 0x6c, 0x6c, 0x5f, 0x31, 0x3a, 0x30, 0x00, 0x02, 0x00, 0x00, 0x00,
 0x01, 0x00, 0x00, 0x00, 0x04, 0x00, 0x00, 0x00, 0xf2, 0xfb, 0xff, 0xff,
 0x00, 0x00, 0x00, 0x01, 0x14, 0x00, 0x00, 0x00, 0x1c, 0x00, 0x00, 0x00,
 0x1c, 0x00, 0x00, 0x00, 0x0a, 0x00, 0x00, 0x00, 0xc4, 0x00, 0x00, 0x00,
 0x02, 0x00, 0x00, 0x00, 0xff, 0xff, 0xff, 0xff, 0x04, 0x00, 0x00, 0x00,
 0xdc, 0xfb, 0xff, 0xff, 0xaa, 0x00, 0x00, 0x00, 0x73, 0x65, 0x71, 0x75,
 0x65, 0x6e, 0x74, 0x69, 0x61, 0x6c, 0x5f, 0x31, 0x5f, 0x31, 0x2f, 0x62,
 0x61, 0x74, 0x63, 0x68, 0x5f, 0x6e, 0x6f, 0x72, 0x6d, 0x61, 0x6c, 0x69,
 0x7a, 0x61, 0x74, 0x69, 0x6f, 0x6e, 0x5f, 0x33, 0x5f, 0x31, 0x2f, 0x62,
 0x61, 0x74, 0x63, 0x68, 0x6e, 0x6f, 0x72, 0x6d, 0x2f, 0x6d, 0x75, 0x6c,
 0x5f, 0x31, 0x3b, 0x73, 0x65, 0x71, 0x75, 0x65, 0x6e, 0x74, 0x69, 0x61,
 0x6c, 0x5f, 0x31, 0x5f, 0x31, 0x2f, 0x62, 0x61, 0x74, 0x63, 0x68, 0x5f,
 0x6e, 0x6f, 0x72, 0x6d, 0x61, 0x6c, 0x69, 0x7a, 0x61, 0x74, 0x69, 0x6f,
 0x6e, 0x5f, 0x33, 0x5f, 0x31, 0x2f, 0x62, 0x61, 0x74, 0x63, 0x68, 0x6e,
 0x6f, 0x72, 0x6d, 0x2f, 0x61, 0x64, 0x64, 0x5f, 0x31, 0x3b, 0x73, 0x65,
 0x71, 0x75, 0x65, 0x6e, 0x74, 0x69, 0x61, 0x6c, 0x5f, 0x31, 0x5f, 0x31,
 0x2f, 0x64, 0x65, 0x6e, 0x73, 0x65, 0x5f, 0x35, 0x5f, 0x31, 0x2f, 0x4d,
 0x61, 0x74, 0x4d, 0x75, 0x6c, 0x3b, 0x73, 0x65, 0x71, 0x75, 0x65, 0x6e,
 0x74, 0x69, 0x61, 0x6c, 0x5f, 0x31, 0x5f, 0x31, 0x2f, 0x64, 0x65, 0x6e,
 0x73, 0x65, 0x5f, 0x35, 0x5f, 0x31, 0x2f, 0x41, 0x64, 0x64, 0x00, 0x00,
 0x02, 0x00, 0x00, 0x00, 0x01, 0x00, 0x00, 0x00, 0x04, 0x00, 0x00, 0x00,
 0xda, 0xfc, 0xff, 0xff, 0x00, 0x00, 0x00, 0x01, 0x14, 0x00, 0x00, 0x00,
 0x1c, 0x00, 0x00, 0x00, 0x1c, 0x00, 0x00, 0x00, 0x09, 0x00, 0x00, 0x00,
 0xe4, 0x00, 0x00, 0x00, 0x02, 0x00, 0x00, 0x00, 0xff, 0xff, 0xff, 0xff,
 0x20, 0x00, 0x00, 0x00, 0xc4, 0xfc, 0xff, 0xff, 0xc8, 0x00, 0x00, 0x00,
 0x73, 0x65, 0x71, 0x75, 0x65, 0x6e, 0x74, 0x69, 0x61, 0x6c, 0x5f, 0x31,
 0x5f, 0x31, 0x2f, 0x62, 0x61, 0x74, 0x63, 0x68, 0x5f, 0x6e, 0x6f, 0x72,
 0x6d, 0x61, 0x6c, 0x69, 0x7a, 0x61, 0x74, 0x69, 0x6f, 0x6e, 0x5f, 0x32,
 0x5f, 0x31, 0x2f, 0x62, 0x61, 0x74, 0x63, 0x68, 0x6e, 0x6f, 0x72, 0x6d,
 0x2f, 0x6d, 0x75, 0x6c, 0x5f, 0x31, 0x3b, 0x73, 0x65, 0x71, 0x75, 0x65,
 0x6e, 0x74, 0x69, 0x61, 0x6c, 0x5f, 0x31, 0x5f, 0x31, 0x2f, 0x62, 0x61,
 0x74, 0x63, 0x68, 0x5f, 0x6e, 0x6f, 0x72, 0x6d, 0x61, 0x6c, 0x69, 0x7a,
 0x61, 0x74, 0x69, 0x6f, 0x6e, 0x5f, 0x32, 0x5f, 0x31, 0x2f, 0x62, 0x61,
 0x74, 0x63, 0x68, 0x6e, 0x6f, 0x72, 0x6d, 0x2f, 0x61, 0x64, 0x64, 0x5f,
 0x31, 0x3b, 0x73, 0x65, 0x71, 0x75, 0x65, 0x6e, 0x74, 0x69, 0x61, 0x6c,
 0x5f, 0x31, 0x5f, 0x31, 0x2f, 0x64, 0x65, 0x6e, 0x73, 0x65, 0x5f, 0x34,
 0x5f, 0x31, 0x2f, 0x4d, 0x61, 0x74, 0x4d, 0x75, 0x6c, 0x3b, 0x73, 0x65,
 0x71, 0x75, 0x65, 0x6e, 0x74, 0x69, 0x61, 0x6c, 0x5f, 0x31, 0x5f, 0x31,
 0x2f, 0x64, 0x65, 0x6e, 0x73, 0x65, 0x5f, 0x34, 0x5f, 0x31, 0x2f, 0x52,
 0x65, 0x6c, 0x75, 0x3b, 0x73, 0x65, 0x71, 0x75, 0x65, 0x6e, 0x74, 0x69,
 0x61, 0x6c, 0x5f, 0x31, 0x5f, 0x31, 0x2f, 0x64, 0x65, 0x6e, 0x73, 0x65,
 0x5f, 0x34, 0x5f, 0x31, 0x2f, 0x41, 0x64, 0x64, 0x00, 0x00, 0x00, 0x00,
 0x02, 0x00, 0x00, 0x00, 0x01, 0x00, 0x00, 0x00, 0x20, 0x00, 0x00, 0x00,
 0xe2, 0xfd, 0xff, 0xff, 0x00, 0x00, 0x00, 0x01, 0x14, 0x00, 0x00, 0x00,
 0x1c, 0x00, 0x00, 0x00, 0x1c, 0x00, 0x00, 0x00, 0x08, 0x00, 0x00, 0x00,
 0x74, 0x00, 0x00, 0x00, 0x02, 0x00, 0x00, 0x00, 0xff, 0xff, 0xff, 0xff,
 0x40, 0x00, 0x00, 0x00, 0xcc, 0xfd, 0xff, 0xff, 0x5a, 0x00, 0x00, 0x00,
 0x73, 0x65, 0x71, 0x75, 0x65, 0x6e, 0x74, 0x69, 0x61, 0x6c, 0x5f, 0x31,
 0x5f, 0x31, 0x2f, 0x64, 0x65, 0x6e, 0x73, 0x65, 0x5f, 0x33, 0x5f, 0x31,
 0x2f, 0x4d, 0x61, 0x74, 0x4d, 0x75, 0x6c, 0x3b, 0x73, 0x65, 0x71, 0x75,
 0x65, 0x6e, 0x74, 0x69, 0x61, 0x6c, 0x5f, 0x31, 0x5f, 0x31, 0x2f, 0x64,
 0x65, 0x6e, 0x73, 0x65, 0x5f, 0x33, 0x5f, 0x31, 0x2f, 0x52, 0x65, 0x6c,
 0x75, 0x3b, 0x73, 0x65, 0x71, 0x75, 0x65, 0x6e, 0x74, 0x69, 0x61, 0x6c,
 0x5f, 0x31, 0x5f, 0x31, 0x2f, 0x64, 0x65, 0x6e, 0x73, 0x65, 0x5f, 0x33,
 0x5f, 0x31, 0x2f, 0x41, 0x64, 0x64, 0x00, 0x00, 0x02, 0x00, 0x00, 0x00,
 0x01, 0x00, 0x00, 0x00, 0x40, 0x00, 0x00, 0x00, 0xce, 0xfe, 0xff, 0xff,
 0x00, 0x00, 0x00, 0x01, 0x10, 0x00, 0x00, 0x00, 0x10, 0x00, 0x00, 0x00,
 0x07, 0x00, 0x00, 0x00, 0x2c, 0x00, 0x00, 0x00, 0x54, 0xfe, 0xff, 0xff,
 0x1f, 0x00, 0x00, 0x00, 0x73, 0x65, 0x71, 0x75, 0x65, 0x6e, 0x74, 0x69,
 0x61, 0x6c, 0x5f, 0x31, 0x5f, 0x31, 0x2f, 0x64, 0x65, 0x6e, 0x73, 0x65,
 0x5f, 0x33, 0x5f, 0x31, 0x2f, 0x4d, 0x61, 0x74, 0x4d, 0x75, 0x6c, 0x00,
 0x02, 0x00, 0x00, 0x00, 0x40, 0x00, 0x00, 0x00, 0x05, 0x00, 0x00, 0x00,
 0x1a, 0xff, 0xff, 0xff, 0x00, 0x00, 0x00, 0x01, 0x10, 0x00, 0x00, 0x00,
 0x10, 0x00, 0x00, 0x00, 0x06, 0x00, 0x00, 0x00, 0x1c, 0x00, 0x00, 0x00,
 0xa0, 0xfe, 0xff, 0xff, 0x0f, 0x00, 0x00, 0x00, 0x61, 0x72, 0x69, 0x74,
 0x68, 0x2e, 0x63, 0x6f, 0x6e, 0x73, 0x74, 0x61, 0x6e, 0x74, 0x34, 0x00,
 0x01, 0x00, 0x00, 0x00, 0x40, 0x00, 0x00, 0x00, 0x52, 0xff, 0xff, 0xff,
 0x00, 0x00, 0x00, 0x01, 0x10, 0x00, 0x00, 0x00, 0x10, 0x00, 0x00, 0x00,
 0x05, 0x00, 0x00, 0x00, 0x1c, 0x00, 0x00, 0x00, 0xd8, 0xfe, 0xff, 0xff,
 0x0f, 0x00, 0x00, 0x00, 0x61, 0x72, 0x69, 0x74, 0x68, 0x2e, 0x63, 0x6f,
 0x6e, 0x73, 0x74, 0x61, 0x6e, 0x74, 0x33, 0x00, 0x01, 0x00, 0x00, 0x00,
 0x20, 0x00, 0x00, 0x00, 0x8a, 0xff, 0xff, 0xff, 0x00, 0x00, 0x00, 0x01,
 0x10, 0x00, 0x00, 0x00, 0x10, 0x00, 0x00, 0x00, 0x04, 0x00, 0x00, 0x00,
 0x1c, 0x00, 0x00, 0x00, 0x10, 0xff, 0xff, 0xff, 0x0f, 0x00, 0x00, 0x00,
 0x61, 0x72, 0x69, 0x74, 0x68, 0x2e, 0x63, 0x6f, 0x6e, 0x73, 0x74, 0x61,
 0x6e, 0x74, 0x32, 0x00, 0x02, 0x00, 0x00, 0x00, 0x20, 0x00, 0x00, 0x00,
 0x40, 0x00, 0x00, 0x00, 0xc6, 0xff, 0xff, 0xff, 0x00, 0x00, 0x00, 0x01,
 0x10, 0x00, 0x00, 0x00, 0x10, 0x00, 0x00, 0x00, 0x03, 0x00, 0x00, 0x00,
 0x1c, 0x00, 0x00, 0x00, 0x4c, 0xff, 0xff, 0xff, 0x0f, 0x00, 0x00, 0x00,
 0x61, 0x72, 0x69, 0x74, 0x68, 0x2e, 0x63, 0x6f, 0x6e, 0x73, 0x74, 0x61,
 0x6e, 0x74, 0x31, 0x00, 0x01, 0x00, 0x00, 0x00, 0x04, 0x00, 0x00, 0x00,
 0x00, 0x00, 0x16, 0x00, 0x18, 0x00, 0x14, 0x00, 0x00, 0x00, 0x10, 0x00,
 0x0c, 0x00, 0x08, 0x00, 0x00, 0x00, 0x00, 0x00, 0x00, 0x00, 0x07, 0x00,
 0x16, 0x00, 0x00, 0x00, 0x00, 0x00, 0x00, 0x01, 0x10, 0x00, 0x00, 0x00,
 0x10, 0x00, 0x00, 0x00, 0x02, 0x00, 0x00, 0x00, 0x1c, 0x00, 0x00, 0x00,
 0x9c, 0xff, 0xff, 0xff, 0x0e, 0x00, 0x00, 0x00, 0x61, 0x72, 0x69, 0x74,
 0x68, 0x2e, 0x63, 0x6f, 0x6e, 0x73, 0x74, 0x61, 0x6e, 0x74, 0x00, 0x00,
 0x02, 0x00, 0x00, 0x00, 0x04, 0x00, 0x00, 0x00, 0x20, 0x00, 0x00, 0x00,
 0x00, 0x00, 0x16, 0x00, 0x1c, 0x00, 0x18, 0x00, 0x00, 0x00, 0x14, 0x00,
 0x10, 0x00, 0x0c, 0x00, 0x00, 0x00, 0x00, 0x00, 0x08, 0x00, 0x07, 0x00,
 0x16, 0x00, 0x00, 0x00, 0x00, 0x00, 0x00, 0x01, 0x14, 0x00, 0x00, 0x00,
 0x20, 0x00, 0x00, 0x00, 0x20, 0x00, 0x00, 0x00, 0x01, 0x00, 0x00, 0x00,
 0x40, 0x00, 0x00, 0x00, 0x02, 0x00, 0x00, 0x00, 0xff, 0xff, 0xff, 0xff,
 0x05, 0x00, 0x00, 0x00, 0x04, 0x00, 0x04, 0x00, 0x04, 0x00, 0x00, 0x00,
 0x20, 0x00, 0x00, 0x00, 0x73, 0x65, 0x72, 0x76, 0x69, 0x6e, 0x67, 0x5f,
 0x64, 0x65, 0x66, 0x61, 0x75, 0x6c, 0x74, 0x5f, 0x6b, 0x65, 0x72, 0x61,
 0x73, 0x5f, 0x74, 0x65, 0x6e, 0x73, 0x6f, 0x72, 0x5f, 0x38, 0x3a, 0x30,
 0x00, 0x00, 0x00, 0x00, 0x02, 0x00, 0x00, 0x00, 0x01, 0x00, 0x00, 0x00,
 0x05, 0x00, 0x00, 0x00, 0x02, 0x00, 0x00, 0x00, 0x20, 0x00, 0x00, 0x00,
 0x04, 0x00, 0x00, 0x00, 0xf4, 0xff, 0xff, 0xff, 0x19, 0x00, 0x00, 0x00,
 0x00, 0x00, 0x00, 0x19, 0x0c, 0x00, 0x0c, 0x00, 0x0b, 0x00, 0x00, 0x00,
 0x00, 0x00, 0x04, 0x00, 0x0c, 0x00, 0x00, 0x00, 0x09, 0x00, 0x00, 0x00,
 0x00, 0x00, 0x00, 0x09,
};
unsigned int model_feedforward_2_tflite_len = 12664;
