unsigned char g_model[] = {
  0x1c, 0x00, 0x00, 0x00, 0x54, 0x46, 0x4c, 0x33, 0x14, 0x00, 0x20, 0x00,
  0x1c, 0x00, 0x18, 0x00, 0x14, 0x00, 0x10, 0x00, 0x0c, 0x00, 0x00, 0x00,
  0x08, 0x00, 0x04, 0x00, 0x14, 0x00, 0x00, 0x00, 0x1c, 0x00, 0x00, 0x00,
  0x9c, 0x00, 0x00, 0x00, 0xf4, 0x00, 0x00, 0x00, 0xa4, 0x2a, 0x00, 0x00,
  0xb4, 0x2a, 0x00, 0x00, 0x34, 0x31, 0x00, 0x00, 0x03, 0x00, 0x00, 0x00,
  0x01, 0x00, 0x00, 0x00, 0x10, 0x00, 0x00, 0x00, 0x00, 0x00, 0x0a, 0x00,
  0x10, 0x00, 0x0c, 0x00, 0x08, 0x00, 0x04, 0x00, 0x0a, 0x00, 0x00, 0x00,
  0x0c, 0x00, 0x00, 0x00, 0x1c, 0x00, 0x00, 0x00, 0x3c, 0x00, 0x00, 0x00,
  0x0f, 0x00, 0x00, 0x00, 0x73, 0x65, 0x72, 0x76, 0x69, 0x6e, 0x67, 0x5f,
  0x64, 0x65, 0x66, 0x61, 0x75, 0x6c, 0x74, 0x00, 0x01, 0x00, 0x00, 0x00,
  0x04, 0x00, 0x00, 0x00, 0x8c, 0xff, 0xff, 0xff, 0x0a, 0x00, 0x00, 0x00,
  0x04, 0x00, 0x00, 0x00, 0x08, 0x00, 0x00, 0x00, 0x6f, 0x75, 0x74, 0x70,
  0x75, 0x74, 0x5f, 0x30, 0x00, 0x00, 0x00, 0x00, 0x01, 0x00, 0x00, 0x00,
  0x04, 0x00, 0x00, 0x00, 0x42, 0xd5, 0xff, 0xff, 0x04, 0x00, 0x00, 0x00,
  0x10, 0x00, 0x00, 0x00, 0x6b, 0x65, 0x72, 0x61, 0x73, 0x5f, 0x74, 0x65,
  0x6e, 0x73, 0x6f, 0x72, 0x5f, 0x31, 0x32, 0x35, 0x00, 0x00, 0x00, 0x00,
  0x02, 0x00, 0x00, 0x00, 0x34, 0x00, 0x00, 0x00, 0x04, 0x00, 0x00, 0x00,
  0xdc, 0xff, 0xff, 0xff, 0x0d, 0x00, 0x00, 0x00, 0x04, 0x00, 0x00, 0x00,
  0x13, 0x00, 0x00, 0x00, 0x43, 0x4f, 0x4e, 0x56, 0x45, 0x52, 0x53, 0x49,
  0x4f, 0x4e, 0x5f, 0x4d, 0x45, 0x54, 0x41, 0x44, 0x41, 0x54, 0x41, 0x00,
  0x08, 0x00, 0x0c, 0x00, 0x08, 0x00, 0x04, 0x00, 0x08, 0x00, 0x00, 0x00,
  0x0c, 0x00, 0x00, 0x00, 0x04, 0x00, 0x00, 0x00, 0x13, 0x00, 0x00, 0x00,
  0x6d, 0x69, 0x6e, 0x5f, 0x72, 0x75, 0x6e, 0x74, 0x69, 0x6d, 0x65, 0x5f,
  0x76, 0x65, 0x72, 0x73, 0x69, 0x6f, 0x6e, 0x00, 0x0e, 0x00, 0x00, 0x00,
  0xac, 0x29, 0x00, 0x00, 0xa4, 0x29, 0x00, 0x00, 0x94, 0x27, 0x00, 0x00,
  0x74, 0x27, 0x00, 0x00, 0x64, 0x07, 0x00, 0x00, 0xd4, 0x06, 0x00, 0x00,
  0xc4, 0x05, 0x00, 0x00, 0xb4, 0x00, 0x00, 0x00, 0xac, 0x00, 0x00, 0x00,
  0xa4, 0x00, 0x00, 0x00, 0x9c, 0x00, 0x00, 0x00, 0x94, 0x00, 0x00, 0x00,
  0x74, 0x00, 0x00, 0x00, 0x04, 0x00, 0x00, 0x00, 0xfa, 0xd5, 0xff, 0xff,
  0x04, 0x00, 0x00, 0x00, 0x60, 0x00, 0x00, 0x00, 0x10, 0x00, 0x00, 0x00,
  0x00, 0x00, 0x00, 0x00, 0x08, 0x00, 0x0e, 0x00, 0x08, 0x00, 0x04, 0x00,
  0x08, 0x00, 0x00, 0x00, 0x10, 0x00, 0x00, 0x00, 0x24, 0x00, 0x00, 0x00,
  0x00, 0x00, 0x06, 0x00, 0x08, 0x00, 0x04, 0x00, 0x06, 0x00, 0x00, 0x00,
  0x04, 0x00, 0x00, 0x00, 0x00, 0x00, 0x00, 0x00, 0x0c, 0x00, 0x18, 0x00,
  0x14, 0x00, 0x10, 0x00, 0x0c, 0x00, 0x04, 0x00, 0x0c, 0x00, 0x00, 0x00,
  0x35, 0xbc, 0x6e, 0xbf, 0x87, 0xfc, 0xe8, 0x38, 0x02, 0x00, 0x00, 0x00,
  0x02, 0x00, 0x00, 0x00, 0x04, 0x00, 0x00, 0x00, 0x06, 0x00, 0x00, 0x00,
  0x32, 0x2e, 0x31, 0x38, 0x2e, 0x30, 0x00, 0x00, 0x66, 0xd6, 0xff, 0xff,
  0x04, 0x00, 0x00, 0x00, 0x10, 0x00, 0x00, 0x00, 0x31, 0x2e, 0x35, 0x2e,
  0x30, 0x00, 0x00, 0x00, 0x00, 0x00, 0x00, 0x00, 0x00, 0x00, 0x00, 0x00,
  0xb4, 0xd0, 0xff, 0xff, 0xb8, 0xd0, 0xff, 0xff, 0xbc, 0xd0, 0xff, 0xff,
  0xc0, 0xd0, 0xff, 0xff, 0x92, 0xd6, 0xff, 0xff, 0x04, 0x00, 0x00, 0x00,
  0x00, 0x05, 0x00, 0x00, 0xd5, 0x99, 0x8a, 0xbd, 0x4f, 0xce, 0x8b, 0xbe,
  0x43, 0xc5, 0x7e, 0x3e, 0x61, 0xcc, 0x62, 0x3e, 0x34, 0xe4, 0xca, 0xbc,
  0xbf, 0xeb, 0x2e, 0xbd, 0x82, 0xf1, 0x9f, 0x3c, 0xce, 0xce, 0x07, 0xbd,
  0x45, 0x13, 0x44, 0x3f, 0xfa, 0x1d, 0x56, 0xbf, 0x80, 0x59, 0x88, 0xbb,
  0x3a, 0xc2, 0x9f, 0xbd, 0x80, 0x2d, 0xb9, 0xbb, 0x00, 0x88, 0xd8, 0x3c,
  0x98, 0xdf, 0x5d, 0x3e, 0xb8, 0xcc, 0x59, 0xbd, 0xb4, 0x9c, 0x68, 0xbd,
  0x78, 0x89, 0x4d, 0x3d, 0xc0, 0x81, 0x0d, 0x3d, 0x40, 0x18, 0x90, 0x3e,
  0x40, 0x16, 0x88, 0x3d, 0xc0, 0xb3, 0x7a, 0x3c, 0x08, 0xcf, 0x83, 0xbe,
  0x18, 0xe6, 0x69, 0x3d, 0xb8, 0xdb, 0x6e, 0x3d, 0x8f, 0x3f, 0x6c, 0xbe,
  0x39, 0x9a, 0x95, 0x3e, 0x41, 0x84, 0xc5, 0xbd, 0x8d, 0x85, 0x89, 0xc0,
  0xd6, 0x82, 0x5f, 0xbf, 0x5a, 0x79, 0x9e, 0x3e, 0x1c, 0x85, 0x2b, 0x3e,
  0x95, 0x8f, 0x7d, 0xbd, 0x2f, 0x52, 0x05, 0xc1, 0xcc, 0xd9, 0xfc, 0x3f,
  0x19, 0x57, 0x07, 0x3c, 0x2b, 0x86, 0xaf, 0x3d, 0x9f, 0x8d, 0xbc, 0xbc,
  0xc8, 0x3c, 0xf9, 0xc0, 0xd5, 0x17, 0x08, 0x40, 0x80, 0xca, 0xc3, 0xbb,
  0x98, 0x2e, 0x00, 0xbd, 0xca, 0x5d, 0xd5, 0xbd, 0xa2, 0x0a, 0x63, 0xbe,
  0xd4, 0x28, 0x45, 0xbe, 0x03, 0x1c, 0x65, 0x3c, 0xb9, 0xe9, 0x0e, 0x3e,
  0xaf, 0x80, 0x86, 0xbe, 0xa7, 0xb4, 0x3f, 0xbf, 0x12, 0xb3, 0xd2, 0x3e,
  0xb7, 0x6c, 0xae, 0xbb, 0xfa, 0x7a, 0x2c, 0x3c, 0x71, 0x34, 0x2d, 0xbd,
  0x45, 0xd5, 0xda, 0x3f, 0x26, 0xdd, 0x34, 0xbf, 0x49, 0x90, 0x19, 0xbc,
  0x92, 0x20, 0xa5, 0xbb, 0x88, 0xf3, 0x82, 0xbc, 0x8f, 0xdf, 0x23, 0xbd,
  0xb1, 0xff, 0x92, 0x3e, 0x50, 0x6d, 0xf1, 0xbc, 0x94, 0xc8, 0x54, 0xbd,
  0xd0, 0x90, 0x11, 0xbe, 0x1c, 0xd5, 0x9d, 0x3d, 0x9d, 0x3a, 0x8c, 0xbe,
  0xbc, 0x33, 0x10, 0x3e, 0xf2, 0x33, 0x0b, 0xbc, 0x16, 0x4f, 0x20, 0xbd,
  0xa8, 0x3b, 0xad, 0x3f, 0x64, 0xd1, 0x1a, 0xbf, 0xed, 0x3f, 0x14, 0xbe,
  0xec, 0x7b, 0x8e, 0xbd, 0x60, 0xcf, 0x08, 0x3c, 0x96, 0xc2, 0x8b, 0x3e,
  0xa0, 0x07, 0xa4, 0x3c, 0x5b, 0xa4, 0x4c, 0xbe, 0x51, 0x92, 0x8b, 0xbe,
  0xb4, 0x6a, 0xd2, 0xbd, 0x11, 0xdb, 0x1a, 0xbe, 0x90, 0xba, 0xfc, 0xbd,
  0x13, 0xca, 0xfb, 0x3c, 0x0d, 0x7c, 0xba, 0x3e, 0x49, 0x2e, 0x09, 0xbe,
  0x18, 0x06, 0x9f, 0xc0, 0x23, 0x10, 0x1d, 0xbf, 0x6c, 0x7e, 0x49, 0xbd,
  0x2d, 0xfe, 0x91, 0xbe, 0xf8, 0xa2, 0xfb, 0x3d, 0xf2, 0x04, 0x2c, 0x3e,
  0x50, 0x51, 0x90, 0x3e, 0xf4, 0x9d, 0x62, 0x3e, 0xa8, 0xc5, 0x4e, 0xbd,
  0xda, 0x01, 0x7c, 0xbe, 0x62, 0x3f, 0x16, 0x3e, 0xfc, 0x12, 0xa9, 0xbd,
  0x20, 0x5c, 0x31, 0xbc, 0x48, 0x72, 0x0a, 0xbe, 0xee, 0x97, 0x3f, 0xbe,
  0xf4, 0xd2, 0x8f, 0x3e, 0x74, 0xab, 0x00, 0xbe, 0xdc, 0xcc, 0x52, 0x3e,
  0x28, 0xa7, 0x99, 0xbd, 0xf8, 0x1d, 0xa9, 0xbd, 0xe0, 0x78, 0x95, 0xbc,
  0x4e, 0x7a, 0x29, 0xbe, 0x72, 0xe0, 0x8f, 0x3e, 0x3f, 0x68, 0x96, 0xbe,
  0x2c, 0xe3, 0x8e, 0x3d, 0x20, 0x2f, 0x51, 0x3d, 0x94, 0xdd, 0xfc, 0x3d,
  0x76, 0x9c, 0x81, 0xbe, 0xc2, 0x70, 0x48, 0xbe, 0x2c, 0x28, 0x43, 0x3e,
  0x22, 0xf6, 0x6b, 0xbe, 0x42, 0xb1, 0x1a, 0x3c, 0xa0, 0x54, 0x85, 0x3d,
  0xaa, 0xc4, 0xf1, 0x3e, 0x88, 0x5d, 0xf3, 0xbd, 0x59, 0x54, 0x86, 0xc0,
  0xd9, 0xff, 0xa4, 0xbe, 0xdf, 0xa5, 0xdc, 0xbb, 0x31, 0xe1, 0x65, 0x3c,
  0x50, 0xb2, 0x39, 0xbd, 0xf7, 0x27, 0x7c, 0x3f, 0x3e, 0x33, 0x82, 0xbf,
  0xec, 0x2c, 0x21, 0x3d, 0x4d, 0xc0, 0x05, 0x3b, 0x9a, 0xa2, 0x32, 0xbd,
  0x2f, 0x4c, 0x01, 0x40, 0x0d, 0xb8, 0x1c, 0xbf, 0x36, 0x9b, 0x98, 0xbe,
  0xa1, 0xf0, 0xec, 0xbd, 0x4c, 0x92, 0xc4, 0x3d, 0x34, 0xc0, 0x33, 0x3e,
  0x45, 0xca, 0x71, 0xbe, 0x2a, 0xff, 0x67, 0xbe, 0x0c, 0xe3, 0x52, 0xbd,
  0xf8, 0x98, 0x7f, 0xbe, 0x60, 0xb0, 0x8c, 0x3c, 0x30, 0x37, 0x8c, 0x3e,
  0xcf, 0x12, 0x27, 0xbe, 0x2e, 0x51, 0xba, 0xbd, 0x00, 0xba, 0xe0, 0x3b,
  0x3c, 0xc2, 0x76, 0x3e, 0x80, 0x4c, 0x5e, 0x3e, 0x8f, 0x89, 0x18, 0x3f,
  0x07, 0x1f, 0x0c, 0xbd, 0xf9, 0x66, 0x8c, 0x3c, 0x90, 0x88, 0xa1, 0xbf,
  0x6d, 0x5e, 0xeb, 0x3e, 0xb4, 0x0b, 0x26, 0x3e, 0xbc, 0x50, 0xf2, 0x3d,
  0x58, 0x78, 0x85, 0xbe, 0x80, 0x81, 0xac, 0x3c, 0x4a, 0xaf, 0xcc, 0xbd,
  0xff, 0x56, 0x08, 0x3e, 0xdc, 0x72, 0xf3, 0xbc, 0x96, 0xc9, 0xdc, 0x3c,
  0xe7, 0xc5, 0x29, 0x3d, 0xe2, 0x0e, 0xf2, 0xbc, 0x5a, 0xca, 0x85, 0x3c,
  0x65, 0x84, 0xc8, 0x3b, 0x3f, 0x9c, 0x39, 0xbd, 0x83, 0x5e, 0x08, 0x40,
  0x25, 0x00, 0x38, 0xbf, 0x47, 0xd9, 0x5b, 0x3e, 0xad, 0x51, 0x6c, 0xbe,
  0xa6, 0x7d, 0x67, 0x3e, 0xe4, 0x2e, 0x1b, 0x3e, 0x6a, 0x61, 0x9b, 0xbd,
  0x73, 0xd0, 0x6f, 0x3d, 0x94, 0xdc, 0x8e, 0xbe, 0xd5, 0x9a, 0x85, 0x3e,
  0x39, 0xad, 0xcc, 0x3e, 0x54, 0xec, 0xca, 0x3e, 0x8e, 0x65, 0x34, 0xbe,
  0xca, 0xc8, 0x22, 0xbd, 0x21, 0x45, 0x60, 0x3c, 0x91, 0xc6, 0xbb, 0xbb,
  0x17, 0x01, 0xd8, 0x3e, 0x38, 0xce, 0x05, 0x3d, 0x3e, 0x8a, 0x6c, 0xbe,
  0x45, 0xdc, 0x94, 0xbe, 0x8c, 0x25, 0x64, 0x3e, 0x1d, 0x27, 0x93, 0xbe,
  0x0e, 0x50, 0x11, 0xbe, 0x1c, 0xa4, 0x82, 0x3e, 0x24, 0xa9, 0x4a, 0xbe,
  0xe8, 0x06, 0xcc, 0x3f, 0x3f, 0x8c, 0xff, 0x3f, 0x99, 0xa1, 0xa4, 0xbe,
  0x6b, 0x08, 0x0d, 0x3e, 0x16, 0x58, 0x9f, 0xbe, 0x67, 0x33, 0xd7, 0xbf,
  0x87, 0x41, 0x42, 0x3f, 0xd6, 0x78, 0x9c, 0xbe, 0x3c, 0x1e, 0xf2, 0x3d,
  0x2c, 0xab, 0xb5, 0x3c, 0x9b, 0xa0, 0x9b, 0xc0, 0x20, 0x92, 0x3a, 0x3f,
  0x60, 0x41, 0x37, 0xbf, 0xbf, 0xd4, 0x17, 0xbd, 0x6a, 0xb3, 0xd4, 0x3c,
  0x7f, 0xaa, 0x48, 0xc0, 0x61, 0xcf, 0x31, 0x3f, 0x47, 0x9e, 0x8e, 0xbe,
  0x4c, 0xd9, 0x4d, 0xbd, 0x40, 0xc5, 0x8d, 0xbe, 0x1a, 0xa2, 0x1f, 0x3e,
  0xd4, 0xfc, 0xaa, 0xbd, 0xab, 0xf7, 0x06, 0x3d, 0xf4, 0x72, 0xe0, 0x3d,
  0xd3, 0x20, 0x7e, 0xbe, 0x62, 0x86, 0xa8, 0xbd, 0x36, 0xb9, 0xe8, 0x3d,
  0x74, 0xb1, 0x58, 0x3e, 0x02, 0xf9, 0xca, 0x3e, 0x79, 0x9d, 0xf8, 0xbd,
  0xfe, 0x0d, 0xac, 0xc0, 0xd8, 0xfb, 0x00, 0xbf, 0xc8, 0x72, 0x1a, 0x3d,
  0xc0, 0xcd, 0x0b, 0x3d, 0x6a, 0xfd, 0x59, 0xbe, 0x12, 0x92, 0x01, 0x3e,
  0x38, 0xcd, 0xd3, 0x3d, 0x82, 0xee, 0x09, 0xbf, 0xcf, 0xa4, 0xf4, 0x3d,
  0x26, 0x15, 0xe0, 0xbd, 0x10, 0x63, 0xaf, 0xc0, 0x5b, 0x85, 0x42, 0xbf,
  0xf0, 0x90, 0x04, 0xbf, 0x4e, 0x01, 0xbf, 0x3e, 0xc4, 0xbf, 0xcd, 0xbd,
  0x85, 0x64, 0x74, 0xc0, 0xcb, 0xee, 0x04, 0x3e, 0xe7, 0xfd, 0x93, 0xbe,
  0x1c, 0x00, 0x12, 0xbe, 0x7e, 0x9e, 0x14, 0x3e, 0xe0, 0x16, 0x74, 0xbe,
  0xd0, 0xf1, 0xd2, 0xbc, 0x18, 0x29, 0xbc, 0xbe, 0x62, 0xa2, 0xd6, 0xbc,
  0xc2, 0xb3, 0xb4, 0x3c, 0xd3, 0xec, 0x81, 0x3e, 0xec, 0x27, 0xb7, 0xbe,
  0x2c, 0x8a, 0x80, 0xbd, 0xe2, 0x05, 0x45, 0xbe, 0x8a, 0x04, 0x8c, 0xbe,
  0x9b, 0x54, 0x56, 0xbe, 0x6c, 0x34, 0xb1, 0xbd, 0x20, 0xfb, 0x98, 0xbe,
  0x06, 0x54, 0x54, 0xbd, 0xc8, 0xae, 0x11, 0x3d, 0xde, 0x6c, 0x10, 0xc0,
  0x55, 0x4a, 0x7b, 0x3f, 0x02, 0x09, 0x27, 0x3e, 0x42, 0xe4, 0xe2, 0x3d,
  0xa0, 0xf2, 0x05, 0xbe, 0x80, 0x37, 0x2d, 0xc0, 0x23, 0x05, 0x84, 0xbf,
  0x78, 0xb2, 0x69, 0xbe, 0x6f, 0x5b, 0x90, 0xbe, 0xef, 0x0d, 0x92, 0xbe,
  0x40, 0xa9, 0x80, 0x3e, 0xde, 0xc4, 0x88, 0x3e, 0xe0, 0xca, 0x9e, 0x3d,
  0x70, 0x48, 0xa2, 0x3e, 0x64, 0x31, 0x02, 0xbe, 0x09, 0x89, 0x99, 0xc0,
  0x58, 0x92, 0x23, 0xbf, 0xba, 0x7d, 0xc8, 0xbd, 0x66, 0x32, 0x8b, 0xbd,
  0xef, 0x11, 0x46, 0xbe, 0xe9, 0x25, 0x90, 0xbe, 0x40, 0x8c, 0x2b, 0x3d,
  0x1e, 0x8f, 0x54, 0x3e, 0x26, 0x19, 0x46, 0xb9, 0xf6, 0x90, 0x6e, 0xbd,
  0x80, 0x76, 0xb9, 0x3f, 0x7a, 0x06, 0xe2, 0xbe, 0x3b, 0x91, 0x0a, 0x3f,
  0xe0, 0x7b, 0x97, 0x3e, 0x3c, 0xaa, 0xc1, 0xbd, 0x4e, 0x9d, 0xc0, 0xc0,
  0x17, 0x20, 0xd5, 0xbd, 0xf2, 0xf9, 0x2c, 0x3e, 0xd0, 0x57, 0x2a, 0xbe,
  0x27, 0xd8, 0x16, 0x3e, 0xc4, 0x71, 0x8b, 0x3e, 0xf1, 0x2e, 0x99, 0xbd,
  0x45, 0x5f, 0x96, 0xbe, 0x65, 0x39, 0x96, 0xbe, 0x74, 0x4b, 0x38, 0x3e,
  0x78, 0x36, 0xac, 0xbd, 0x5a, 0x8c, 0x1b, 0x3e, 0xa7, 0x1e, 0x14, 0xbe,
  0x95, 0x72, 0xab, 0x3c, 0x91, 0x60, 0xf8, 0xbc, 0x7b, 0x0a, 0x9d, 0x3f,
  0x7b, 0x87, 0x64, 0xbf, 0xf6, 0x74, 0x6f, 0x3e, 0x28, 0x14, 0xc8, 0x3d,
  0x13, 0x33, 0x7c, 0xbe, 0x3e, 0x2a, 0xd4, 0x3d, 0x57, 0x27, 0x7b, 0xbe,
  0xa4, 0x33, 0x6c, 0x3e, 0x80, 0xbf, 0xf7, 0x3c, 0x66, 0x14, 0x30, 0xbe,
  0x5e, 0xde, 0x32, 0x3e, 0xf6, 0x5a, 0x99, 0xbd, 0x34, 0x6f, 0x4b, 0xbe,
  0x67, 0x3b, 0xea, 0x3d, 0xca, 0xde, 0x81, 0xbe, 0x9b, 0x2d, 0x36, 0x3e,
  0x4b, 0x7c, 0x2e, 0xbc, 0xdd, 0x76, 0x29, 0x3d, 0x4a, 0x91, 0x28, 0x3e,
  0xb6, 0x0a, 0xbc, 0xbe, 0x81, 0x6c, 0x68, 0xbe, 0x49, 0x1c, 0xa8, 0xbd,
  0x9e, 0xdb, 0xff, 0xff, 0x04, 0x00, 0x00, 0x00, 0x00, 0x01, 0x00, 0x00,
  0xcf, 0xc3, 0xd6, 0x3c, 0x72, 0x45, 0x81, 0x3d, 0x00, 0x00, 0x00, 0x00,
  0x00, 0x00, 0x00, 0x00, 0x00, 0x00, 0x00, 0x00, 0xa3, 0x68, 0x4a, 0x3c,
  0x98, 0xba, 0xdd, 0xbc, 0x6e, 0x9b, 0x56, 0x3d, 0x00, 0x00, 0x00, 0x00,
  0x95, 0x63, 0x3f, 0xbd, 0x33, 0x13, 0x92, 0x3d, 0x6e, 0xf9, 0x0e, 0xbc,
  0x00, 0x00, 0x00, 0x00, 0x3b, 0x72, 0xc0, 0x3d, 0x00, 0x00, 0x00, 0x00,
  0x00, 0x00, 0x00, 0x00, 0x77, 0x5d, 0xb5, 0x3c, 0x00, 0x00, 0x00, 0x00,
  0x00, 0x00, 0x00, 0x00, 0x00, 0x00, 0x00, 0x00, 0x00, 0x00, 0x00, 0x00,
  0x00, 0x00, 0x00, 0x00, 0x84, 0xfc, 0x61, 0xbc, 0x1a, 0x1c, 0xad, 0x3a,
  0x6f, 0xc0, 0x31, 0xbc, 0xe7, 0xcb, 0x87, 0x3d, 0x47, 0xbb, 0x92, 0x3d,
  0x00, 0x00, 0x00, 0x00, 0x00, 0x00, 0x00, 0x00, 0xc3, 0x65, 0x62, 0xbc,
  0x00, 0x00, 0x00, 0x00, 0xb9, 0x1f, 0x9f, 0x3a, 0x0c, 0x1a, 0x19, 0x3e,
  0x50, 0xc8, 0xbf, 0xbc, 0x61, 0x3a, 0x26, 0x3f, 0xaa, 0x0b, 0x00, 0x3d,
  0x00, 0x00, 0x00, 0x00, 0xc2, 0x27, 0x1c, 0x3e, 0xbb, 0x2d, 0x0e, 0xbe,
  0x13, 0x88, 0xd3, 0x3c, 0x31, 0x93, 0x1e, 0x3c, 0x00, 0x00, 0x00, 0x00,
  0xd2, 0xcc, 0x61, 0xbd, 0x52, 0xd9, 0xc7, 0xbb, 0x00, 0x00, 0x00, 0x00,
  0x09, 0xff, 0x20, 0xbd, 0x01, 0xd2, 0x5a, 0xbc, 0x00, 0x00, 0x00, 0x00,
  0xaf, 0x55, 0x54, 0xbc, 0x00, 0x00, 0x00, 0x00, 0xbb, 0x10, 0xf9, 0xbc,
  0xe1, 0x78, 0x48, 0x3c, 0x00, 0x00, 0x00, 0x00, 0xe8, 0x2d, 0x3d, 0xbd,
  0x00, 0x00, 0x00, 0x00, 0xbc, 0xcf, 0x2f, 0x3d, 0x9f, 0xd0, 0x3a, 0xbc,
  0x28, 0x0e, 0x13, 0xbc, 0x00, 0x00, 0x00, 0x00, 0x6c, 0x73, 0x8d, 0x3d,
  0xdf, 0x5f, 0x72, 0xb8, 0x00, 0x00, 0x00, 0x00, 0x27, 0x99, 0x77, 0xb7,
  0xe3, 0x7f, 0x42, 0xbe, 0xaa, 0xdc, 0xff, 0xff, 0x04, 0x00, 0x00, 0x00,
  0x80, 0x00, 0x00, 0x00, 0x24, 0x47, 0xf6, 0x40, 0x2b, 0xea, 0x7a, 0x41,
  0x16, 0x8a, 0xa3, 0xc0, 0x4d, 0x34, 0x7c, 0x41, 0x42, 0xe0, 0x01, 0xc2,
  0xfb, 0x9b, 0x80, 0x41, 0x58, 0x8a, 0x0a, 0x42, 0x74, 0x10, 0x89, 0x41,
  0xa3, 0xdc, 0x85, 0xc1, 0xfd, 0xdf, 0x05, 0xbf, 0x17, 0x93, 0x13, 0xc0,
  0xf2, 0x02, 0x1f, 0x41, 0x22, 0x90, 0x5f, 0x41, 0xfc, 0x63, 0x91, 0x41,
  0x29, 0x0c, 0x68, 0xc1, 0xbf, 0xa8, 0xd7, 0x41, 0x84, 0x64, 0x93, 0xc1,
  0x8f, 0xf6, 0x96, 0x3f, 0xd0, 0x48, 0x77, 0x3e, 0x42, 0x04, 0x9a, 0xc1,
  0xd9, 0x69, 0x4b, 0xc1, 0x9f, 0x07, 0xbf, 0xbf, 0xaf, 0x96, 0x3a, 0xc1,
  0x0c, 0xe1, 0x92, 0x41, 0xc5, 0x31, 0x07, 0x42, 0x44, 0xb7, 0x8c, 0xbf,
  0x1b, 0x60, 0x9e, 0x41, 0x59, 0xc7, 0xa6, 0x41, 0x9d, 0x19, 0x61, 0xc1,
  0x5c, 0x14, 0xe6, 0xc1, 0x32, 0x4b, 0x92, 0x41, 0xc9, 0x15, 0x68, 0x3c,
  0x36, 0xdd, 0xff, 0xff, 0x04, 0x00, 0x00, 0x00, 0x00, 0x20, 0x00, 0x00,
  0x17, 0xe2, 0x99, 0xc0, 0x9e, 0xa3, 0x1c, 0x40, 0xea, 0xd4, 0xa0, 0x40,
  0x6e, 0x99, 0xc0, 0x40, 0xf8, 0x7e, 0x85, 0xc0, 0x7f, 0x82, 0x86, 0x3a,
  0x7e, 0x61, 0x40, 0xbc, 0x9c, 0x1d, 0x30, 0xbc, 0x1b, 0x64, 0x6f, 0xbf,
  0x0e, 0xa7, 0x0f, 0xbe, 0xf0, 0x8e, 0xda, 0xc0, 0x27, 0xf6, 0xa0, 0xbf,
  0x94, 0xa2, 0x84, 0x40, 0xd8, 0x76, 0x55, 0xc1, 0x90, 0x23, 0xd1, 0xc0,
  0x39, 0xa7, 0x3c, 0x41, 0x1a, 0x6f, 0xa8, 0x3a, 0xd3, 0x76, 0x35, 0x3e,
  0x05, 0xa1, 0xdf, 0x40, 0x69, 0x06, 0xbf, 0xc0, 0x7c, 0x7e, 0xcb, 0x40,
  0x39, 0x31, 0xbf, 0x40, 0x85, 0xb8, 0x09, 0x41, 0xf8, 0x05, 0x5b, 0x39,
  0x19, 0x5b, 0x40, 0xbf, 0x9f, 0xe5, 0x28, 0xc1, 0x0d, 0xc0, 0x77, 0x3f,
  0x4f, 0x2b, 0xb2, 0x40, 0x85, 0x88, 0xb0, 0x40, 0xba, 0xf7, 0x1f, 0x3f,
  0x77, 0x58, 0xd4, 0xbf, 0xa1, 0xd8, 0x9b, 0xbf, 0x56, 0x82, 0x99, 0xc1,
  0x5a, 0x1b, 0xf3, 0xc0, 0xd2, 0x77, 0xcc, 0x41, 0x05, 0x7c, 0x5c, 0xc0,
  0xab, 0xef, 0xb1, 0x40, 0xdd, 0x1e, 0x86, 0xbb, 0x21, 0x6f, 0x2a, 0xc0,
  0xd3, 0x21, 0xa6, 0x3a, 0x48, 0xf5, 0x23, 0x40, 0xc7, 0xf9, 0x05, 0x40,
  0xd8, 0x16, 0x7d, 0xc1, 0x8b, 0xe0, 0xb5, 0x38, 0x69, 0x30, 0xbb, 0x40,
  0xb3, 0x71, 0x47, 0x3c, 0x2a, 0x28, 0xe5, 0x39, 0xbf, 0x0e, 0x8e, 0xc0,
  0xe9, 0xb1, 0x45, 0xc1, 0xec, 0x0a, 0x8b, 0x40, 0xda, 0x6f, 0x1d, 0xc0,
  0x8a, 0x74, 0x7d, 0x40, 0xd5, 0x84, 0xff, 0xc0, 0xf1, 0xc6, 0xe3, 0x39,
  0xb7, 0xd0, 0xab, 0x40, 0x17, 0x11, 0x27, 0xc1, 0x5f, 0xf3, 0xbf, 0x39,
  0xee, 0xa8, 0x99, 0x40, 0xa8, 0x39, 0x6b, 0xc1, 0x02, 0x2c, 0x8c, 0x40,
  0x65, 0x5f, 0x85, 0x40, 0x60, 0xf3, 0xbc, 0xbf, 0x65, 0x26, 0x3b, 0x40,
  0x16, 0x23, 0x86, 0x40, 0x48, 0x5d, 0x15, 0x3f, 0x89, 0x15, 0xc3, 0xbe,
  0xb1, 0x98, 0x61, 0xc0, 0xb8, 0x0b, 0xb8, 0x40, 0x58, 0x39, 0x37, 0xc1,
  0x47, 0xe7, 0x08, 0xb9, 0x4b, 0x11, 0xea, 0xbb, 0xd0, 0x74, 0xf5, 0xbb,
  0x2e, 0x0f, 0xcc, 0xbf, 0x37, 0x54, 0x12, 0xbe, 0x5c, 0x5a, 0x4d, 0x40,
  0x48, 0x45, 0x3b, 0x41, 0x44, 0x4c, 0x24, 0xc1, 0x57, 0x83, 0x82, 0xbf,
  0x77, 0x8d, 0x98, 0xc0, 0x34, 0x80, 0x53, 0x40, 0xcb, 0x63, 0x31, 0xb9,
  0x2c, 0xf9, 0xa5, 0x40, 0x4e, 0xd6, 0x15, 0x41, 0xc5, 0xd5, 0xd6, 0x40,
  0x87, 0x87, 0x07, 0x40, 0x93, 0x32, 0x0a, 0x41, 0x0b, 0xfc, 0xfb, 0x40,
  0x8d, 0x9b, 0x8a, 0xb8, 0x8e, 0xc0, 0x89, 0xc0, 0x50, 0x0a, 0x3a, 0xc1,
  0xe4, 0x73, 0x7a, 0xc1, 0x3b, 0x71, 0x1b, 0xc1, 0x10, 0x37, 0x0d, 0xc0,
  0xf8, 0xc3, 0x9f, 0xc0, 0x78, 0x2c, 0x66, 0x41, 0x2c, 0x8d, 0x4a, 0xc1,
  0xe0, 0x2e, 0x8e, 0xc0, 0xbd, 0x84, 0xda, 0xc0, 0xe7, 0xfe, 0x00, 0xc1,
  0x45, 0x25, 0xf3, 0xbf, 0x24, 0xbd, 0x67, 0x41, 0xcd, 0xe7, 0x53, 0xbc,
  0x50, 0x60, 0xc0, 0xc1, 0xd8, 0xd7, 0x9e, 0x39, 0xf3, 0x9d, 0xc3, 0x40,
  0x2b, 0x03, 0xe3, 0x40, 0xf7, 0x5b, 0x37, 0xc0, 0x40, 0xcd, 0x00, 0x39,
  0x63, 0x59, 0x1a, 0xc0, 0x56, 0x17, 0x05, 0x3d, 0x82, 0x64, 0x1b, 0x3a,
  0x84, 0x87, 0x09, 0xc0, 0xd2, 0x1d, 0x9e, 0xc0, 0x4d, 0xb2, 0x14, 0x41,
  0x71, 0x95, 0xfa, 0x40, 0xe2, 0x3e, 0x1f, 0x41, 0x8f, 0x67, 0x4d, 0x41,
  0xbe, 0x53, 0xda, 0x38, 0x5c, 0x15, 0xbf, 0xc0, 0x9a, 0xb1, 0xf1, 0xc0,
  0xb9, 0x93, 0xea, 0x39, 0xd8, 0x1f, 0x16, 0x41, 0x5e, 0x4b, 0x45, 0x41,
  0x3c, 0xdf, 0x54, 0x41, 0xb3, 0x8a, 0x5b, 0x41, 0xf2, 0x82, 0xe9, 0xc0,
  0xfd, 0x52, 0x69, 0x3f, 0x37, 0xaa, 0x53, 0xc1, 0x27, 0xc5, 0x00, 0x41,
  0x21, 0xa4, 0xf2, 0xc0, 0x73, 0x7a, 0xb5, 0xc0, 0xca, 0x77, 0x51, 0xc0,
  0x65, 0x35, 0x50, 0x41, 0x8e, 0x1f, 0x19, 0x3b, 0x6d, 0xa9, 0x0a, 0xbb,
  0x3a, 0x1a, 0xb9, 0xbb, 0x85, 0x0e, 0x12, 0x41, 0x81, 0x34, 0xef, 0xbe,
  0x64, 0x49, 0xb5, 0xc0, 0x82, 0xab, 0xf5, 0x40, 0x38, 0x22, 0x8a, 0xbf,
  0x08, 0xbb, 0x81, 0xc0, 0x30, 0xdb, 0x90, 0xc0, 0xbf, 0x98, 0x02, 0xc1,
  0x59, 0xcf, 0xb8, 0x3a, 0x62, 0x1d, 0x12, 0x41, 0xcc, 0x7f, 0xac, 0xbe,
  0x8d, 0x49, 0x28, 0xc1, 0xc7, 0x65, 0xe1, 0xc0, 0xd0, 0x3d, 0x90, 0xc0,
  0x20, 0xad, 0x05, 0xc1, 0x9c, 0x6f, 0xac, 0x39, 0x5b, 0x30, 0x1c, 0x41,
  0x65, 0x72, 0x01, 0xc0, 0x45, 0x12, 0x2d, 0x41, 0x8b, 0xf4, 0x64, 0x41,
  0x04, 0x20, 0xb3, 0xc0, 0xe6, 0x5f, 0x04, 0x40, 0x2d, 0x5b, 0x38, 0xc1,
  0x0b, 0xe9, 0xd5, 0x40, 0x49, 0x12, 0x35, 0xc1, 0xdb, 0xc4, 0x2e, 0x41,
  0x7e, 0xfb, 0xe0, 0x41, 0xa1, 0x3c, 0x91, 0x40, 0x5d, 0xaf, 0x9b, 0xc0,
  0xa9, 0xd0, 0x9d, 0xbb, 0xaf, 0x2b, 0xb9, 0xc0, 0xa2, 0xfc, 0x95, 0x3a,
  0x90, 0x63, 0x13, 0xc0, 0xcb, 0xe1, 0xfc, 0x40, 0x0a, 0x31, 0xe9, 0xc0,
  0xc3, 0x7c, 0x10, 0x3a, 0x71, 0x5c, 0x63, 0x3f, 0x6a, 0x5b, 0x02, 0x3d,
  0xe9, 0x18, 0x09, 0x3b, 0xc3, 0xf2, 0x8d, 0xbd, 0xca, 0x6a, 0xa4, 0x3e,
  0x72, 0xfa, 0xc4, 0xc0, 0x76, 0x0d, 0xf1, 0xbe, 0x39, 0xe1, 0x47, 0x40,
  0x8b, 0x80, 0x16, 0xc0, 0xaa, 0x54, 0x97, 0x3a, 0xc2, 0xf4, 0x81, 0x3e,
  0x3f, 0x32, 0xc4, 0xc0, 0xe4, 0xd6, 0xcf, 0x3a, 0x73, 0x0b, 0x81, 0xbe,
  0x2f, 0xa3, 0x40, 0xc1, 0x53, 0x81, 0x81, 0xc0, 0x1b, 0x38, 0xc7, 0xbf,
  0x97, 0x59, 0x8c, 0xc0, 0x4e, 0xa5, 0x53, 0xc0, 0xe3, 0x5d, 0x4f, 0x41,
  0x60, 0x61, 0x05, 0xc0, 0xac, 0x37, 0x7f, 0x40, 0xe7, 0x73, 0x0e, 0xc1,
  0x36, 0x5d, 0x42, 0xc0, 0x3a, 0xd6, 0x30, 0xc1, 0x69, 0xe5, 0xd9, 0x37,
  0xea, 0x21, 0x98, 0xbb, 0xca, 0xaa, 0xbc, 0xbb, 0xa1, 0xc0, 0x24, 0xc1,
  0xab, 0xc5, 0xaf, 0xbf, 0xa9, 0xd9, 0xce, 0xc0, 0xc9, 0x14, 0xa0, 0xc0,
  0xf3, 0xbe, 0x1d, 0xc1, 0x5c, 0x6d, 0x4e, 0x41, 0x20, 0x79, 0xc7, 0x41,
  0xda, 0x83, 0x92, 0x41, 0x69, 0xbb, 0x0c, 0x39, 0x44, 0xb6, 0x69, 0xc1,
  0x51, 0xb7, 0xe1, 0xc1, 0x4e, 0x24, 0xa5, 0x41, 0xe9, 0x5d, 0x84, 0x41,
  0xe2, 0xfb, 0xab, 0xc0, 0x96, 0xfe, 0x89, 0x40, 0x5b, 0x4b, 0x6d, 0x39,
  0x58, 0x4a, 0x85, 0xbf, 0xa2, 0x04, 0xbe, 0x40, 0xa5, 0xc1, 0xa1, 0x40,
  0xb5, 0x29, 0x93, 0xc0, 0xfe, 0x7c, 0xb5, 0xc0, 0x59, 0xd2, 0xb2, 0xc0,
  0x8e, 0x73, 0xc4, 0x40, 0x7e, 0x7a, 0x0a, 0x41, 0xc0, 0x89, 0xad, 0xbf,
  0x2c, 0x32, 0x68, 0x41, 0x84, 0x47, 0xb8, 0x3f, 0x6f, 0xa6, 0x64, 0x41,
  0x4d, 0xa0, 0xa8, 0x41, 0xac, 0xa7, 0x3f, 0xbc, 0xdd, 0xfd, 0xfe, 0xbf,
  0x10, 0x03, 0x86, 0x39, 0x2d, 0x48, 0xab, 0x3f, 0xb9, 0x42, 0x35, 0xc1,
  0x6d, 0xa9, 0xd6, 0x3f, 0x6e, 0xba, 0x9f, 0xb8, 0x4e, 0x92, 0x5a, 0xc0,
  0xb7, 0x8c, 0x22, 0xbc, 0xc2, 0x33, 0x95, 0xb9, 0xe3, 0xf0, 0x85, 0x41,
  0x78, 0xf3, 0x89, 0x40, 0x15, 0xac, 0x84, 0x41, 0xf3, 0x4f, 0x84, 0x40,
  0xf8, 0x9f, 0x80, 0x3f, 0xb9, 0x93, 0x02, 0x41, 0x9e, 0x5f, 0xbc, 0xb9,
  0xc4, 0xba, 0x25, 0xc0, 0x50, 0x84, 0x13, 0x41, 0x25, 0xc3, 0xb7, 0xb8,
  0xd6, 0x5b, 0x5a, 0x40, 0x80, 0xd4, 0xa0, 0x40, 0xd6, 0x43, 0x6e, 0xc0,
  0x8d, 0x45, 0xbe, 0xc1, 0x12, 0x9f, 0x51, 0x41, 0xc5, 0x72, 0x6f, 0xc1,
  0x9e, 0xcb, 0x08, 0xc0, 0x97, 0x66, 0x20, 0xc1, 0xcf, 0x3b, 0x17, 0x41,
  0x67, 0x78, 0x80, 0xc0, 0x6e, 0xf0, 0xb3, 0x3f, 0xb9, 0x97, 0xb0, 0x40,
  0xfa, 0x56, 0x32, 0x3a, 0xa6, 0xd8, 0xed, 0x3c, 0x2b, 0x6d, 0x0d, 0x3d,
  0x04, 0x30, 0x39, 0x40, 0x07, 0x71, 0x3c, 0x3f, 0x3b, 0x88, 0x30, 0x40,
  0x40, 0x41, 0xb1, 0xc0, 0x5f, 0x46, 0x72, 0x40, 0xf6, 0x26, 0x9a, 0x3e,
  0x59, 0x7c, 0x2d, 0x41, 0xa2, 0x58, 0x08, 0x41, 0x5e, 0xa6, 0x48, 0x3a,
  0xac, 0xbe, 0x17, 0xc0, 0x56, 0xcf, 0xcd, 0xc0, 0xad, 0xbb, 0x70, 0x40,
  0x57, 0x0f, 0x2f, 0x41, 0x61, 0x7c, 0x01, 0x40, 0x34, 0xf1, 0x77, 0xbf,
  0x2a, 0x4f, 0x5c, 0x38, 0x03, 0x2b, 0xdc, 0x3e, 0x00, 0x7a, 0xbb, 0x40,
  0x52, 0xd7, 0x91, 0x3f, 0x0d, 0xc8, 0x20, 0xc1, 0xf7, 0x8a, 0x22, 0xc1,
  0x0d, 0xd6, 0x94, 0xc0, 0xce, 0xec, 0xc5, 0x3f, 0x30, 0xe6, 0xdc, 0xc0,
  0xd0, 0x24, 0x22, 0x41, 0x2c, 0x9b, 0x5a, 0x41, 0x5f, 0xc0, 0x04, 0xc1,
  0x11, 0x10, 0x95, 0xc0, 0x60, 0x3f, 0x10, 0x3f, 0x09, 0x8b, 0x90, 0x3b,
  0xfb, 0x8f, 0x79, 0xc1, 0x2b, 0x48, 0x6c, 0x39, 0xcf, 0xfd, 0xac, 0xc0,
  0xe7, 0x27, 0x13, 0x41, 0xaa, 0xdf, 0x3c, 0x40, 0xcc, 0x83, 0x95, 0x37,
  0x09, 0x2e, 0x76, 0xc1, 0x01, 0x5d, 0x0e, 0xbb, 0xdb, 0xb5, 0x4b, 0x38,
  0xdf, 0xd6, 0xf6, 0x40, 0xf4, 0xce, 0x1f, 0x40, 0x4f, 0x26, 0x10, 0x41,
  0x12, 0xab, 0x99, 0x3f, 0x96, 0xbc, 0xcb, 0x3f, 0xff, 0x28, 0x66, 0xc1,
  0xd4, 0xf5, 0x9c, 0x39, 0x3d, 0x5b, 0x8f, 0xc1, 0x61, 0xd4, 0xcc, 0xc0,
  0x75, 0xa3, 0x18, 0x3a, 0x42, 0xd7, 0xa8, 0x40, 0x66, 0xf5, 0xa5, 0x40,
  0xd7, 0xae, 0x44, 0x40, 0x3a, 0x10, 0x11, 0xc0, 0x94, 0xb5, 0x3b, 0x41,
  0xea, 0xf9, 0x36, 0xc0, 0xf6, 0x75, 0x05, 0xc1, 0x52, 0x05, 0x56, 0xc1,
  0xf0, 0x45, 0xb1, 0xc0, 0x77, 0x7b, 0x54, 0xc0, 0x17, 0xa2, 0x47, 0x40,
  0x7f, 0x2d, 0xd3, 0x3e, 0xfa, 0x39, 0x85, 0xba, 0xbf, 0xb6, 0x56, 0x3b,
  0xe6, 0xa2, 0x17, 0x3b, 0x6d, 0xc1, 0x41, 0x3f, 0x4c, 0x11, 0x20, 0xbf,
  0x8f, 0xfe, 0x45, 0xbe, 0x60, 0x58, 0x5c, 0x40, 0xca, 0x3d, 0x22, 0xc1,
  0xd4, 0xb3, 0x57, 0x40, 0xe7, 0xfc, 0x0c, 0x41, 0x1f, 0xdf, 0x7c, 0x40,
  0x82, 0x44, 0xdd, 0xba, 0x72, 0x09, 0x15, 0xc0, 0xda, 0x9a, 0x0a, 0xc0,
  0xe7, 0x48, 0x84, 0x40, 0x88, 0x59, 0xbf, 0x40, 0x01, 0x93, 0x49, 0x40,
  0xf0, 0xaf, 0xc0, 0xbf, 0x1d, 0x69, 0x86, 0xba, 0x12, 0x7c, 0x7b, 0xc0,
  0x73, 0x6f, 0xef, 0xc0, 0x79, 0xdd, 0x9e, 0xc0, 0xb7, 0x71, 0x20, 0xc0,
  0x6a, 0x41, 0xdb, 0x3f, 0x75, 0x07, 0xc3, 0xc0, 0x8e, 0x45, 0x18, 0x41,
  0x5a, 0xe1, 0x39, 0x40, 0x1d, 0x0f, 0x1d, 0xc1, 0x1b, 0x44, 0xd9, 0x40,
  0x67, 0x2e, 0x0a, 0x41, 0x01, 0x6e, 0xf7, 0xbf, 0x5f, 0x74, 0x96, 0x40,
  0xa0, 0x7e, 0x97, 0xbb, 0xd6, 0xa4, 0x68, 0xc0, 0x09, 0x72, 0x78, 0xbb,
  0x89, 0xc6, 0x02, 0xc0, 0x74, 0xb7, 0x0c, 0xc1, 0xe9, 0x37, 0xb2, 0xc0,
  0xc5, 0x82, 0x86, 0xba, 0xeb, 0x14, 0x61, 0xc0, 0x3d, 0x77, 0x44, 0xbd,
  0xfa, 0x73, 0xcf, 0xba, 0xde, 0xa4, 0x34, 0xc1, 0x42, 0x2b, 0xe4, 0x3e,
  0x25, 0xae, 0x86, 0x40, 0x96, 0x43, 0x2d, 0xc0, 0x99, 0xf9, 0x41, 0xc0,
  0xa5, 0x8c, 0x74, 0xc1, 0xaf, 0xbd, 0xfe, 0xba, 0x2b, 0xea, 0x3f, 0xc1,
  0x94, 0x55, 0x60, 0xc1, 0x44, 0x19, 0x1d, 0xbb, 0xeb, 0x76, 0x07, 0x41,
  0xd3, 0x22, 0x42, 0x3b, 0xa9, 0x60, 0xd0, 0xc0, 0x3b, 0xdc, 0xea, 0xbf,
  0xbf, 0xb4, 0x7f, 0xc0, 0x9c, 0x52, 0xc3, 0xc0, 0x8b, 0x22, 0x91, 0xc0,
  0x76, 0x45, 0x13, 0x40, 0x24, 0xc4, 0x90, 0x40, 0x49, 0xb9, 0xd0, 0x40,
  0xcb, 0x81, 0x35, 0xc0, 0x0b, 0xbe, 0x75, 0xc1, 0x9c, 0xa5, 0x8d, 0xb7,
  0x0a, 0xab, 0xad, 0xbc, 0x09, 0x05, 0x43, 0xbd, 0xaa, 0xf6, 0xf5, 0xc0,
  0xc7, 0x68, 0x77, 0xbf, 0xce, 0x30, 0x78, 0xc0, 0x9b, 0x6f, 0xef, 0xc0,
  0xc2, 0x41, 0x9c, 0xc0, 0xd9, 0xd6, 0x88, 0x3e, 0x2e, 0x41, 0x2e, 0x41,
  0x16, 0x2e, 0x8a, 0x41, 0x6d, 0xe7, 0x9e, 0xb7, 0x98, 0x41, 0x45, 0xc0,
  0x55, 0x20, 0xd6, 0xc0, 0x69, 0x20, 0xb2, 0x40, 0xe6, 0x42, 0x9d, 0x40,
  0xd3, 0x67, 0xac, 0xc0, 0x2f, 0x2e, 0x79, 0xc0, 0x28, 0x93, 0x8f, 0xb8,
  0x60, 0x2d, 0x19, 0x3f, 0xda, 0x7f, 0x4f, 0xbf, 0x29, 0x92, 0x7c, 0xc0,
  0x20, 0x89, 0xe1, 0xc0, 0x17, 0xe2, 0x33, 0xc0, 0x20, 0x57, 0x05, 0xc1,
  0x91, 0x02, 0x3b, 0x41, 0x70, 0x42, 0x3d, 0x40, 0x43, 0xa0, 0xf6, 0xc0,
  0xb0, 0x1d, 0x91, 0xc1, 0x70, 0xff, 0x4f, 0x41, 0xd5, 0xf4, 0x89, 0xbf,
  0x21, 0x98, 0x3b, 0x41, 0xea, 0x4e, 0x84, 0xbb, 0xdc, 0x4e, 0xb2, 0xbf,
  0xca, 0xa7, 0xe0, 0xb9, 0xdd, 0x94, 0xc5, 0x3e, 0x87, 0x20, 0x0d, 0xc1,
  0x4d, 0x7e, 0xb6, 0xc0, 0x0f, 0xf7, 0x29, 0xba, 0x35, 0x8f, 0x90, 0xbf,
  0x3f, 0x22, 0xc6, 0xbb, 0xef, 0x3a, 0x8c, 0xb8, 0x82, 0x8e, 0x74, 0x40,
  0xbe, 0xa3, 0x8b, 0x40, 0xce, 0x90, 0xb8, 0x3f, 0x07, 0xf6, 0xa6, 0x3f,
  0xe3, 0x1c, 0xca, 0x40, 0xe1, 0x55, 0x00, 0x40, 0x36, 0x2e, 0x40, 0xba,
  0x19, 0x37, 0xf9, 0xc0, 0xa3, 0xac, 0x92, 0xc0, 0xb1, 0x49, 0x0e, 0xb9,
  0x45, 0x34, 0x1d, 0x41, 0xc9, 0x89, 0x90, 0x3f, 0x2f, 0xb2, 0xa6, 0xbf,
  0xb2, 0x03, 0x7f, 0x3e, 0xef, 0x5d, 0x35, 0xc0, 0x6d, 0xd6, 0x23, 0xc1,
  0x37, 0xb8, 0x9f, 0x40, 0xa3, 0xea, 0x19, 0xc1, 0xb2, 0x5e, 0x66, 0x40,
  0xa8, 0x99, 0x27, 0x41, 0x3f, 0x93, 0x96, 0x40, 0x43, 0xb3, 0x07, 0xc1,
  0x12, 0x40, 0xbe, 0xba, 0x94, 0x79, 0xf8, 0xb9, 0xf5, 0x49, 0xa9, 0xb9,
  0x83, 0xff, 0x2e, 0xc1, 0x8d, 0xb5, 0x02, 0xbf, 0xd9, 0xb6, 0x33, 0x41,
  0x5a, 0x0c, 0x4a, 0xc1, 0x01, 0x88, 0x0c, 0xc1, 0xbc, 0xc5, 0xad, 0x40,
  0x8a, 0xab, 0x49, 0x41, 0xfb, 0xd4, 0x1b, 0x41, 0x8c, 0x12, 0x9b, 0xba,
  0xcb, 0x69, 0x48, 0xc1, 0x3c, 0xea, 0x68, 0xc1, 0xd8, 0xa4, 0x84, 0x41,
  0xf4, 0xbf, 0xba, 0x41, 0x75, 0x7c, 0x8f, 0xbf, 0xb9, 0x9c, 0x91, 0x40,
  0x72, 0x2a, 0xa8, 0xba, 0x10, 0x94, 0xd9, 0xc0, 0xd5, 0xb1, 0x23, 0x41,
  0x57, 0x3e, 0xce, 0x40, 0xc4, 0x19, 0x6a, 0xc1, 0x46, 0x6f, 0xea, 0xc0,
  0x68, 0x37, 0xc7, 0xc0, 0x6d, 0x3f, 0xa1, 0x41, 0x70, 0x09, 0xbc, 0xc0,
  0x06, 0xf3, 0x96, 0x40, 0x80, 0xd8, 0x89, 0x40, 0xac, 0xc9, 0xca, 0xc0,
  0xaf, 0x14, 0xd6, 0x40, 0x09, 0x54, 0x22, 0x41, 0x96, 0x0b, 0x49, 0xbb,
  0xf9, 0x2c, 0x1b, 0xc1, 0xb0, 0xa7, 0xe1, 0xba, 0x5d, 0x77, 0x9e, 0x3f,
  0xca, 0x0f, 0x7c, 0xc1, 0xd2, 0x08, 0x0e, 0x41, 0xa9, 0xeb, 0x6d, 0xba,
  0x2f, 0x93, 0xe8, 0xc0, 0xeb, 0xe3, 0x33, 0xbd, 0x32, 0x9a, 0xab, 0xba,
  0xff, 0x37, 0x1e, 0x41, 0xc2, 0x1b, 0x1d, 0x41, 0xbd, 0x98, 0xa3, 0x41,
  0xbb, 0x17, 0x95, 0x3e, 0xd7, 0xfa, 0x37, 0xbd, 0xc4, 0xd2, 0x62, 0xc0,
  0xf5, 0x17, 0xe8, 0xba, 0xf3, 0x12, 0xdf, 0xc0, 0xc0, 0x34, 0x61, 0x41,
  0xcd, 0x96, 0x97, 0xba, 0xd3, 0x7b, 0x2c, 0x41, 0x94, 0x10, 0xf6, 0x40,
  0x5e, 0x76, 0x4d, 0x41, 0x4e, 0xab, 0xf8, 0xc0, 0xe1, 0x7a, 0x27, 0x41,
  0xf2, 0x89, 0x7d, 0xc1, 0x9b, 0x8e, 0x3b, 0xc1, 0x46, 0xa3, 0x67, 0xc1,
  0x26, 0xbb, 0xa3, 0xc0, 0xc9, 0x6b, 0x0c, 0x3f, 0xde, 0x7a, 0x34, 0xc0,
  0x50, 0xa5, 0xd8, 0xc0, 0x57, 0xbf, 0xe5, 0x3a, 0x70, 0xab, 0x26, 0xbb,
  0xb7, 0x01, 0x8d, 0x3a, 0x93, 0x9f, 0xfe, 0xc0, 0x93, 0xd0, 0xa7, 0x3f,
  0x35, 0x12, 0x68, 0x3f, 0xa0, 0x15, 0x69, 0x40, 0x9a, 0x1a, 0x51, 0xc0,
  0xaf, 0x65, 0xcb, 0xbe, 0xea, 0xa4, 0x31, 0x40, 0xde, 0xdc, 0x4a, 0xc1,
  0xbe, 0xc9, 0xf4, 0x3a, 0xf6, 0xc6, 0x3b, 0xc0, 0xdc, 0xa3, 0x03, 0xc1,
  0x92, 0x84, 0x18, 0x41, 0x6a, 0x43, 0xa0, 0x40, 0x7d, 0x82, 0xf4, 0xc0,
  0xa6, 0xd2, 0x61, 0xc0, 0xd7, 0x66, 0x74, 0x3a, 0x99, 0xee, 0x0c, 0xc1,
  0xd5, 0xec, 0x1d, 0x40, 0x9d, 0xbe, 0x70, 0xc0, 0x52, 0xaa, 0x76, 0xc1,
  0x4d, 0xd4, 0x32, 0x40, 0x47, 0xa5, 0x91, 0xbf, 0x7c, 0xb0, 0x8d, 0x40,
  0x00, 0x87, 0x2e, 0xbd, 0x39, 0x83, 0x84, 0x40, 0xe7, 0x41, 0xea, 0x40,
  0x9c, 0xde, 0x83, 0xc1, 0x65, 0x29, 0xe8, 0x40, 0xf4, 0xac, 0x8e, 0xc0,
  0x9b, 0x8b, 0xb5, 0x3b, 0xbf, 0xe7, 0x6c, 0x40, 0x6d, 0xe3, 0x3e, 0x3b,
  0x1c, 0x5c, 0x72, 0x40, 0x9a, 0x71, 0x16, 0xc0, 0x56, 0xda, 0x50, 0x40,
  0x54, 0x68, 0xab, 0x3a, 0x6f, 0x87, 0x9a, 0xc0, 0xbe, 0xba, 0x63, 0x3d,
  0xd1, 0xd7, 0xd3, 0x3a, 0xf8, 0x5d, 0x82, 0x40, 0x3c, 0xcb, 0x77, 0x3f,
  0xc0, 0xcf, 0xc6, 0x40, 0xf0, 0x4a, 0x03, 0x40, 0x25, 0xe1, 0x61, 0x3f,
  0xc1, 0x5c, 0x4f, 0x40, 0x7d, 0x14, 0x15, 0x3b, 0x9e, 0x24, 0xdd, 0xc0,
  0x3a, 0x8d, 0x25, 0xc0, 0xdf, 0xd7, 0xd7, 0x3a, 0x93, 0xb6, 0x3e, 0xc1,
  0x7f, 0xd3, 0xf4, 0x3f, 0x30, 0x80, 0x0a, 0xc0, 0xa6, 0x8b, 0x27, 0xc0,
  0xa5, 0x27, 0x50, 0x41, 0x6b, 0xff, 0x80, 0xc0, 0x72, 0x3d, 0x29, 0xc1,
  0x18, 0x21, 0x10, 0x3f, 0x52, 0x08, 0x00, 0x41, 0x89, 0xc7, 0x18, 0x41,
  0xf9, 0x4a, 0x2a, 0x41, 0x5a, 0x95, 0xd5, 0xbf, 0x8e, 0x30, 0xb0, 0x3a,
  0xcf, 0xc6, 0xff, 0xbb, 0x37, 0xca, 0x07, 0xbc, 0xc6, 0x02, 0x01, 0x40,
  0x8e, 0xa8, 0x3c, 0xbe, 0xdc, 0x4d, 0x28, 0xc0, 0xd5, 0xc9, 0x29, 0xc1,
  0x2e, 0x0f, 0xe7, 0x40, 0x47, 0xa2, 0x41, 0x41, 0x56, 0x7a, 0x2c, 0xbf,
  0x17, 0xcd, 0x70, 0xbf, 0xa8, 0x83, 0xd1, 0x3a, 0xc6, 0x46, 0x2b, 0x40,
  0x8c, 0x47, 0x05, 0x41, 0x90, 0xc3, 0x4e, 0x41, 0xb2, 0x6a, 0xad, 0x40,
  0x38, 0x26, 0x33, 0xc1, 0xe4, 0xe7, 0x2c, 0xc1, 0x42, 0xa3, 0x6d, 0x3a,
  0x77, 0xbc, 0xf7, 0xbf, 0x3a, 0x63, 0x5d, 0x40, 0x00, 0x8b, 0x0c, 0x40,
  0xd8, 0xd3, 0xc1, 0xbf, 0x4b, 0xa7, 0x33, 0x3f, 0x26, 0xe6, 0x9f, 0xbf,
  0xfb, 0xe5, 0x27, 0x41, 0xe0, 0x04, 0xe5, 0xc0, 0x90, 0xd5, 0xf4, 0xbf,
  0x97, 0xc5, 0xf2, 0xc0, 0xf8, 0x30, 0x90, 0x40, 0x36, 0x12, 0xf6, 0x40,
  0x73, 0x0e, 0xfc, 0x40, 0xb3, 0x24, 0x7e, 0xbb, 0xc1, 0x4a, 0xdc, 0xc1,
  0x44, 0xde, 0x27, 0x3b, 0xb4, 0x72, 0x22, 0x40, 0xe5, 0x2b, 0x62, 0x40,
  0x89, 0x30, 0xdb, 0xc0, 0xa4, 0x4b, 0x82, 0x3a, 0x2d, 0x22, 0x88, 0xbf,
  0xd0, 0xe7, 0x35, 0x3d, 0x01, 0x08, 0x7a, 0x3a, 0x22, 0x5b, 0x07, 0x3d,
  0x5b, 0xb4, 0x82, 0x3f, 0x8a, 0x3f, 0x78, 0x40, 0xc4, 0x61, 0xc9, 0x40,
  0xd3, 0xd6, 0x38, 0x40, 0x44, 0xd3, 0x11, 0x41, 0xbf, 0xa5, 0x83, 0x3a,
  0xe1, 0x49, 0xb7, 0xc0, 0xe5, 0x54, 0x43, 0x3e, 0xe1, 0xcd, 0xbc, 0x3a,
  0x70, 0x5a, 0x0b, 0xbf, 0x1a, 0x39, 0xdd, 0x40, 0xe8, 0x1e, 0x7a, 0xc0,
  0x2f, 0xe5, 0x15, 0xc0, 0x64, 0xf0, 0xd3, 0x40, 0x63, 0x98, 0xe2, 0xc0,
  0x54, 0xa9, 0xb8, 0x3e, 0xe9, 0xa4, 0x6b, 0xc1, 0x81, 0x58, 0x11, 0x40,
  0x09, 0x12, 0xfe, 0xc0, 0x96, 0x0c, 0x9c, 0x41, 0x47, 0xea, 0xe6, 0xc1,
  0x1e, 0xdd, 0x14, 0xba, 0x42, 0xb8, 0x52, 0x3b, 0xbe, 0x52, 0xbf, 0xb9,
  0xf2, 0x9b, 0x8d, 0xc1, 0xfb, 0xdb, 0xa1, 0x3f, 0xa1, 0x99, 0x05, 0x3f,
  0x4a, 0xf0, 0x98, 0xc0, 0x37, 0xd8, 0xda, 0xc0, 0x94, 0xb3, 0xcb, 0x3f,
  0x38, 0xf4, 0x91, 0x41, 0xfb, 0xd7, 0x09, 0x41, 0x51, 0x31, 0xa3, 0x39,
  0xdc, 0x06, 0x52, 0xc0, 0x82, 0x9d, 0x9b, 0xc1, 0x35, 0xcb, 0x88, 0x41,
  0x5e, 0x9e, 0x19, 0x41, 0x9c, 0xd8, 0xa8, 0x41, 0x0c, 0x9e, 0x40, 0x3e,
  0x52, 0x3b, 0x81, 0xb9, 0x45, 0x3c, 0x73, 0xc1, 0x1c, 0x67, 0x98, 0x40,
  0xde, 0xa1, 0xa9, 0xc0, 0x01, 0x29, 0x1c, 0xc1, 0xb0, 0x9c, 0xd4, 0xc1,
  0xdf, 0x8b, 0xa5, 0xc0, 0xaa, 0xe8, 0x68, 0x41, 0x1d, 0x51, 0x45, 0xc1,
  0x3c, 0x47, 0x9f, 0xc1, 0xa9, 0x3e, 0x23, 0x41, 0xbd, 0x9b, 0xb6, 0xc1,
  0xa3, 0x79, 0x25, 0x40, 0x4f, 0x86, 0x24, 0x41, 0x42, 0x32, 0x08, 0x3c,
  0xd2, 0x0d, 0x52, 0x41, 0x81, 0x80, 0x09, 0xba, 0x5b, 0x86, 0x99, 0x40,
  0x24, 0xa1, 0x2c, 0x3f, 0x37, 0x46, 0x49, 0xc1, 0xdd, 0xdc, 0x5b, 0xb9,
  0x6e, 0xc4, 0xbd, 0xc1, 0xc3, 0xdb, 0x11, 0x39, 0xae, 0x02, 0xcc, 0x36,
  0xef, 0x82, 0xb2, 0x41, 0xf1, 0x1c, 0x57, 0x41, 0x5c, 0x06, 0x89, 0x41,
  0x9a, 0x71, 0xd8, 0x3f, 0xbd, 0x17, 0xac, 0xbf, 0x47, 0xd3, 0xd6, 0x3f,
  0x4f, 0x1f, 0xbc, 0xb9, 0x32, 0xe8, 0x88, 0xc1, 0x77, 0x70, 0x67, 0x40,
  0x8e, 0x1c, 0x18, 0xb9, 0xf1, 0x6f, 0xd2, 0x40, 0x89, 0x77, 0x16, 0x41,
  0xf5, 0xd9, 0xf4, 0x40, 0x47, 0xab, 0xe9, 0xc1, 0x7e, 0x05, 0xc5, 0x41,
  0xfc, 0x31, 0x31, 0xc1, 0xa0, 0x76, 0xbd, 0xc0, 0xd0, 0x0b, 0x4e, 0xc0,
  0x52, 0x32, 0x03, 0xc1, 0x40, 0x4f, 0x4f, 0xbe, 0x6d, 0x81, 0x80, 0x40,
  0x8b, 0x18, 0xcd, 0xc0, 0x6f, 0x89, 0xba, 0x38, 0xb4, 0x6e, 0xc9, 0xba,
  0xdf, 0x8d, 0xb5, 0xbb, 0x17, 0xbe, 0x7c, 0xc1, 0x97, 0x5f, 0x8d, 0xbf,
  0xc4, 0x52, 0x3b, 0xc1, 0x17, 0x6c, 0x6c, 0xc1, 0x67, 0x62, 0x35, 0xc1,
  0x2a, 0x78, 0x47, 0x40, 0xbf, 0x43, 0x29, 0x40, 0xbe, 0x56, 0xd1, 0x41,
  0x4d, 0x30, 0xb7, 0xb8, 0x82, 0x6d, 0xfa, 0xc0, 0x39, 0xd2, 0x0c, 0xc1,
  0x0b, 0xa0, 0x1b, 0x41, 0x44, 0x93, 0x06, 0x41, 0xe3, 0x5d, 0x37, 0xbf,
  0x1e, 0xbf, 0xcd, 0xc0, 0xb2, 0x06, 0xfc, 0x38, 0xce, 0x35, 0x80, 0xc0,
  0x1a, 0x74, 0x60, 0xc1, 0x68, 0xfd, 0xe2, 0x40, 0xf6, 0x57, 0xbc, 0x40,
  0xce, 0x3e, 0x63, 0xc1, 0x5e, 0x3e, 0xa9, 0xc0, 0x49, 0x2f, 0xf9, 0x40,
  0x8b, 0x29, 0x97, 0xc0, 0x27, 0xf4, 0x4d, 0xc1, 0xb7, 0x2e, 0x5b, 0x40,
  0xe7, 0xaa, 0xa9, 0xc0, 0x29, 0x63, 0xb8, 0xbf, 0xfd, 0x06, 0x9d, 0x40,
  0xd1, 0xc6, 0x05, 0xbc, 0x8e, 0x29, 0x1b, 0x42, 0x1b, 0xe0, 0xfb, 0x39,
  0x87, 0xc3, 0x2a, 0x40, 0x01, 0x4a, 0xd3, 0xc0, 0x55, 0xa5, 0x36, 0xc1,
  0xd4, 0x55, 0x24, 0x3a, 0x96, 0xec, 0x88, 0xc1, 0xb9, 0x85, 0x90, 0x3c,
  0x5d, 0x13, 0xcf, 0xb9, 0x7a, 0x6e, 0x13, 0x40, 0x28, 0x02, 0x05, 0x41,
  0xd0, 0x4c, 0x07, 0x41, 0x28, 0x89, 0x57, 0x40, 0xae, 0xaa, 0x98, 0x40,
  0x96, 0xaf, 0x99, 0xbf, 0x99, 0x24, 0x44, 0xb6, 0x2d, 0x2f, 0x02, 0x40,
  0xc5, 0x3d, 0x83, 0x41, 0xca, 0x86, 0x1a, 0x3a, 0x17, 0xf0, 0x10, 0xbc,
  0x28, 0x1a, 0xca, 0x40, 0xd6, 0xa9, 0xf7, 0xbd, 0xd0, 0xb6, 0x14, 0xc1,
  0x90, 0xf6, 0xb4, 0x40, 0xc0, 0x45, 0xc7, 0xc1, 0x82, 0xbf, 0x46, 0xc1,
  0x52, 0x5e, 0x7d, 0xc0, 0x24, 0x1f, 0x87, 0x40, 0xf8, 0x68, 0x41, 0x40,
  0xf7, 0x03, 0x6d, 0x41, 0x09, 0xa1, 0x88, 0xc1, 0x5a, 0xf3, 0x0f, 0xb7,
  0xe7, 0xcd, 0xbe, 0xbb, 0x02, 0x52, 0x9e, 0xbb, 0x3f, 0xd5, 0x4d, 0xc1,
  0x7c, 0xaf, 0xab, 0xbf, 0xa5, 0x0f, 0x94, 0x40, 0x87, 0xa2, 0x92, 0xc0,
  0xe6, 0x4e, 0x67, 0xc1, 0xe5, 0x14, 0x0a, 0x41, 0xba, 0xf4, 0x46, 0x40,
  0x45, 0xb9, 0xbc, 0xc0, 0x12, 0xce, 0x31, 0xb9, 0xd5, 0xff, 0xa1, 0x40,
  0x3f, 0xe7, 0x5c, 0xbf, 0xaa, 0xf5, 0x4c, 0x41, 0x78, 0xb2, 0xcb, 0x40,
  0x20, 0xfc, 0x99, 0x40, 0x58, 0xd8, 0x93, 0xc0, 0x4e, 0x62, 0x8c, 0x39,
  0x22, 0x64, 0x31, 0xc0, 0x3e, 0x6d, 0x4a, 0x41, 0x27, 0x81, 0x89, 0xbf,
  0xd3, 0xb8, 0x3c, 0xc0, 0x48, 0x9a, 0x1f, 0xc1, 0xbd, 0xb1, 0x93, 0xbf,
  0x91, 0x4c, 0x51, 0x41, 0xbb, 0x16, 0x54, 0xc1, 0xb6, 0xc9, 0x28, 0x40,
  0x51, 0x08, 0x1b, 0x41, 0xa8, 0x2a, 0xe4, 0x40, 0x46, 0x26, 0xc9, 0x40,
  0x00, 0xf9, 0x93, 0x3f, 0x95, 0xa3, 0x4a, 0xbc, 0xa8, 0xb6, 0x1a, 0xc2,
  0x6a, 0x43, 0x9d, 0x3a, 0x53, 0x50, 0x84, 0x3f, 0x59, 0xe9, 0x1e, 0xc1,
  0x32, 0x06, 0x46, 0x3f, 0x6f, 0xa7, 0x5d, 0x39, 0xd0, 0x53, 0x89, 0xc0,
  0xc1, 0x2f, 0x4b, 0xba, 0xc7, 0x49, 0xfe, 0x39, 0xc8, 0x44, 0x86, 0x41,
  0x69, 0x46, 0xcf, 0x40, 0x86, 0xa9, 0xed, 0xc0, 0x08, 0x34, 0xed, 0x40,
  0x41, 0xa1, 0xa2, 0xbf, 0x53, 0xf6, 0xbd, 0xc0, 0xbe, 0xd5, 0x7f, 0x3a,
  0x67, 0x18, 0x72, 0xc0, 0x42, 0xa3, 0x54, 0x40, 0x5a, 0x9f, 0xed, 0xb8,
  0x06, 0xc0, 0xaa, 0x41, 0xb2, 0xfc, 0x95, 0x41, 0xfa, 0x46, 0xd4, 0xc0,
  0xe5, 0xd9, 0xc1, 0xc1, 0x4e, 0xee, 0x94, 0x40, 0x64, 0x86, 0xe6, 0xc0,
  0xfb, 0x1e, 0xb9, 0xc0, 0xe4, 0x8b, 0x27, 0xc0, 0x68, 0x4f, 0x41, 0xc0,
  0xec, 0x94, 0x18, 0x40, 0x56, 0x3d, 0x6b, 0x40, 0xc0, 0x7f, 0xd5, 0xc0,
  0x1a, 0x57, 0xc3, 0xba, 0xad, 0x91, 0x7c, 0x3b, 0x60, 0x50, 0x03, 0x3b,
  0xeb, 0xd7, 0xdc, 0xc0, 0xb1, 0xa7, 0xa9, 0xbf, 0x80, 0xf0, 0x3e, 0xc0,
  0x2d, 0x0f, 0x0b, 0xc0, 0xb0, 0xbe, 0x1e, 0xc1, 0x73, 0xdb, 0x1e, 0xc0,
  0x28, 0xab, 0xaf, 0xc0, 0x2f, 0x60, 0x29, 0x41, 0x04, 0x1d, 0xf8, 0xba,
  0x84, 0x22, 0xba, 0xc0, 0x11, 0x10, 0x91, 0xc0, 0xfb, 0x69, 0x33, 0xc0,
  0x2a, 0xc2, 0xd1, 0x40, 0xc9, 0xd5, 0xf8, 0x40, 0x53, 0x03, 0xc4, 0xbf,
  0xec, 0x43, 0x6b, 0xba, 0x18, 0xb1, 0x67, 0xbf, 0xde, 0xf4, 0x4b, 0xc1,
  0x5d, 0xfb, 0x05, 0xc1, 0x91, 0x4c, 0xc1, 0xc0, 0x13, 0x22, 0xbc, 0xc0,
  0xa9, 0xf0, 0x25, 0xc0, 0xc2, 0x1c, 0xa9, 0x40, 0xe0, 0xb5, 0xce, 0xbe,
  0x32, 0x6b, 0xd7, 0xc0, 0xa0, 0x8b, 0x5e, 0x40, 0xdb, 0xcc, 0x22, 0xc1,
  0x4b, 0x0d, 0x3f, 0xc0, 0x72, 0xef, 0x9d, 0xc0, 0x12, 0xb6, 0x9b, 0xbb,
  0x13, 0x99, 0xcf, 0xbe, 0x14, 0xe3, 0x85, 0xbb, 0x19, 0x59, 0xbd, 0xbf,
  0xd0, 0x14, 0x99, 0xbf, 0xb9, 0x73, 0xa2, 0xbf, 0x23, 0x0e, 0xbe, 0xba,
  0x56, 0xc1, 0x0b, 0xc1, 0xe7, 0x65, 0x4e, 0xbd, 0x0c, 0x41, 0xe6, 0xba,
  0x10, 0x6c, 0x10, 0xc0, 0x11, 0x53, 0x87, 0x40, 0x7f, 0x3e, 0x24, 0xbf,
  0xe9, 0xd1, 0x1a, 0xc0, 0x9d, 0x58, 0x34, 0xbf, 0xe9, 0xb6, 0x68, 0xc1,
  0xc9, 0x5d, 0x15, 0xbb, 0xdf, 0xc0, 0x30, 0xc0, 0xa8, 0x3f, 0x3a, 0xc1,
  0xab, 0x7f, 0x3b, 0xbb, 0x33, 0x74, 0x18, 0x40, 0x13, 0xde, 0xd9, 0x3e,
  0x1c, 0x57, 0x95, 0xc0, 0x48, 0x2f, 0x0a, 0xc0, 0x1e, 0x51, 0x9c, 0x40,
  0x1b, 0x5a, 0x82, 0x3f, 0xae, 0x5b, 0x41, 0x3f, 0x4e, 0xfd, 0x46, 0x40,
  0xb1, 0x74, 0xf8, 0xc0, 0x1c, 0xac, 0xcb, 0xbf, 0xd4, 0xc7, 0xb9, 0x40,
  0x2d, 0x8d, 0xb7, 0x40, 0x08, 0x9f, 0xc7, 0x3a, 0xeb, 0xca, 0x97, 0x3a,
  0x5e, 0x8d, 0x9c, 0x3b, 0xa6, 0x44, 0x6f, 0xbf, 0xac, 0xa1, 0x38, 0x3f,
  0x57, 0x16, 0x92, 0x41, 0xf7, 0x27, 0x31, 0x3e, 0x78, 0xb3, 0xaa, 0xbf,
  0x9f, 0x77, 0x45, 0x40, 0xc2, 0x4c, 0x59, 0x40, 0xb6, 0xe8, 0xfe, 0x40,
  0x46, 0xfd, 0xdc, 0x3a, 0x6b, 0x0b, 0x80, 0xc1, 0x7f, 0x46, 0x3d, 0x40,
  0x59, 0x5a, 0x14, 0x41, 0xec, 0x42, 0x5b, 0xc0, 0x90, 0x8e, 0x36, 0x41,
  0x6f, 0xda, 0x61, 0x3f, 0x72, 0xa8, 0x4f, 0x3a, 0xf6, 0x32, 0x1f, 0x41,
  0x41, 0xfe, 0x78, 0x40, 0x10, 0xb1, 0xfb, 0x40, 0x85, 0x5a, 0xa6, 0xc0,
  0x88, 0x7b, 0xd1, 0xc0, 0x74, 0x1a, 0x1a, 0x3f, 0x8f, 0xd7, 0x1e, 0x41,
  0x3b, 0x80, 0x70, 0x40, 0xd2, 0x1a, 0xa0, 0x40, 0x6a, 0xcf, 0x02, 0x41,
  0x8d, 0x4e, 0x49, 0xc1, 0x8c, 0xc3, 0xd4, 0x40, 0xd3, 0xe8, 0x7a, 0x40,
  0x1f, 0xc0, 0xc2, 0x3a, 0xce, 0xb8, 0xb0, 0xc1, 0x34, 0x1a, 0x21, 0x3b,
  0x5c, 0x14, 0x16, 0x40, 0x03, 0xce, 0x7c, 0x41, 0x9d, 0x1f, 0x22, 0x41,
  0xd1, 0x43, 0xb8, 0x3a, 0x71, 0xa7, 0x1e, 0xbf, 0xab, 0x4b, 0x47, 0x3d,
  0x73, 0x28, 0x90, 0x3a, 0xaf, 0x14, 0x72, 0x40, 0xa0, 0xef, 0x8f, 0xc0,
  0x4f, 0x06, 0xda, 0x40, 0xaa, 0x27, 0xfc, 0xbe, 0x9d, 0xe3, 0xf1, 0x3e,
  0xad, 0x65, 0xaf, 0xbf, 0xb8, 0x52, 0x18, 0x3b, 0x8e, 0x75, 0xd1, 0x40,
  0x92, 0x91, 0x5d, 0x40, 0x3b, 0x9c, 0x68, 0x3a, 0x72, 0x9b, 0x90, 0x41,
  0x7b, 0xfd, 0xa4, 0x3f, 0x85, 0xef, 0xc3, 0x40, 0x55, 0xe6, 0xe0, 0xbf,
  0x3a, 0x27, 0x9e, 0x40, 0xf4, 0x1b, 0x44, 0xc0, 0xe4, 0xc9, 0x9d, 0x3f,
  0x54, 0xee, 0x2b, 0xc1, 0x00, 0x0c, 0x04, 0x41, 0x1a, 0x25, 0xee, 0x40,
  0xf5, 0xcd, 0xe6, 0x40, 0x5c, 0xf3, 0x66, 0xc1, 0xc6, 0x0b, 0x04, 0xb9,
  0xfb, 0x93, 0xb7, 0xbc, 0xd7, 0xb8, 0xe7, 0xbc, 0x53, 0xe1, 0x3e, 0xbf,
  0xee, 0xb7, 0xae, 0xbf, 0xdc, 0xfe, 0xf6, 0xbf, 0xe3, 0x9b, 0x94, 0xc1,
  0xc6, 0x8e, 0x6a, 0xc1, 0x16, 0xa2, 0xc5, 0xbe, 0xb9, 0x96, 0xa4, 0x3f,
  0xb3, 0xd2, 0x94, 0x41, 0xc7, 0x3f, 0x0f, 0xb8, 0xbc, 0xc2, 0xde, 0xc0,
  0xb5, 0xd7, 0x9a, 0xc1, 0x67, 0x14, 0xa6, 0x41, 0xec, 0x81, 0x96, 0x3f,
  0x1b, 0xf5, 0xd5, 0x40, 0x16, 0x2c, 0xe9, 0x40, 0xfe, 0xcd, 0x1b, 0x38,
  0x1d, 0x8a, 0x3f, 0x41, 0x4b, 0x9e, 0xd2, 0x3f, 0x87, 0x22, 0xd1, 0x40,
  0x55, 0x1c, 0xd4, 0xc0, 0xb4, 0x29, 0xcc, 0xc1, 0x23, 0xf0, 0x7b, 0x3f,
  0x34, 0x8e, 0x6c, 0x40, 0xaa, 0x95, 0xd3, 0xc0, 0x0a, 0xf6, 0x6a, 0xc1,
  0x05, 0x90, 0xfa, 0x3f, 0x68, 0x69, 0x96, 0x40, 0xa7, 0x28, 0xfb, 0x40,
  0x8b, 0x88, 0x3b, 0x41, 0xa5, 0xb9, 0x1f, 0xbb, 0x65, 0xfd, 0x33, 0xbf,
  0xc5, 0x4b, 0x4c, 0xba, 0xc7, 0x4b, 0x94, 0x40, 0xf8, 0xa0, 0x78, 0xc1,
  0x31, 0x6c, 0x0b, 0x3e, 0xf1, 0x97, 0x40, 0x39, 0x45, 0xa9, 0xa8, 0xc1,
  0x93, 0x9f, 0x2d, 0x3a, 0x8b, 0xfc, 0x65, 0xb9, 0x52, 0x19, 0x0f, 0x41,
  0x68, 0x2f, 0x25, 0x41, 0xf4, 0xcd, 0x64, 0x41, 0x52, 0x7d, 0x1b, 0xc0,
  0x13, 0xaf, 0x78, 0x3f, 0x43, 0xb5, 0x14, 0x3f, 0xa9, 0x96, 0xf1, 0xb8,
  0x4d, 0x40, 0x4a, 0x3f, 0x97, 0x51, 0x2f, 0xc0, 0x33, 0x74, 0xf4, 0xb8,
  0xd0, 0x7d, 0x89, 0x40, 0x1c, 0x7c, 0xb7, 0x40, 0xb4, 0xf4, 0xcc, 0xc0,
  0x0f, 0x79, 0x9a, 0xc1, 0xc8, 0xa0, 0x83, 0x3d, 0x60, 0xa6, 0x96, 0xc1,
  0x65, 0x47, 0x26, 0xc1, 0x15, 0x43, 0xde, 0xc0, 0x91, 0x9a, 0x13, 0xc0,
  0xcf, 0xa5, 0x3b, 0x41, 0x21, 0x1c, 0xec, 0x3f, 0xbe, 0x74, 0x09, 0xc1,
  0xf4, 0xfb, 0x18, 0x3b, 0x1a, 0x5d, 0xb2, 0x3a, 0xa5, 0xfd, 0x93, 0xba,
  0xfb, 0xc1, 0x17, 0xc1, 0xa9, 0x85, 0x49, 0x3f, 0xf3, 0xc7, 0x3a, 0xbf,
  0xe1, 0x9a, 0x8a, 0xbe, 0xf9, 0xbe, 0x6b, 0xc1, 0x23, 0x58, 0xcd, 0x40,
  0xb5, 0xae, 0x62, 0x41, 0x82, 0x61, 0xad, 0xbf, 0x0b, 0x46, 0x0b, 0x3b,
  0xe0, 0x66, 0x11, 0xc1, 0x67, 0x20, 0x36, 0xc1, 0x07, 0x9f, 0xdd, 0x40,
  0x07, 0xd8, 0x8b, 0x40, 0x55, 0x6a, 0x15, 0x41, 0x26, 0xfe, 0x23, 0xc1,
  0x82, 0x2a, 0xa2, 0x3a, 0x1c, 0xf4, 0x35, 0xc0, 0xe8, 0xd7, 0x48, 0x40,
  0xaa, 0xf7, 0xad, 0xbe, 0xb0, 0xa5, 0xd3, 0xc0, 0xc7, 0xd2, 0x6c, 0xc0,
  0x38, 0x8d, 0x9b, 0x40, 0xfb, 0xee, 0x55, 0x40, 0xd3, 0x98, 0x0f, 0xbf,
  0x5e, 0x60, 0x11, 0xbd, 0xf0, 0x21, 0x05, 0x40, 0x8b, 0x8a, 0x96, 0xc0,
  0x5f, 0xae, 0x45, 0x41, 0xaf, 0x3a, 0x07, 0x41, 0xa3, 0x8f, 0x97, 0x3b,
  0x40, 0xcc, 0xe1, 0x3f, 0x67, 0xe3, 0xeb, 0x3a, 0x12, 0x7e, 0xe1, 0x3f,
  0x2f, 0xbc, 0x54, 0xc0, 0xf4, 0x8e, 0xa1, 0xc0, 0x69, 0xfc, 0xeb, 0x3a,
  0x37, 0x5e, 0xd4, 0xc0, 0x81, 0x25, 0x83, 0x3d, 0x82, 0x63, 0xf6, 0x3a,
  0xa9, 0xbe, 0x1c, 0x41, 0xb5, 0xf9, 0x92, 0x3f, 0xe5, 0xa0, 0xf6, 0x3f,
  0xc6, 0x40, 0x91, 0x40, 0x19, 0x07, 0x84, 0x40, 0x81, 0xe7, 0x11, 0xc1,
  0x9e, 0x63, 0x1f, 0x3b, 0xf3, 0xc6, 0xfb, 0xc0, 0x8f, 0x5e, 0xc3, 0x3f,
  0xb2, 0x49, 0xf4, 0x3a, 0xd2, 0x98, 0xd8, 0x40, 0x87, 0x14, 0x4a, 0x3f,
  0xee, 0xcd, 0xb5, 0x40, 0x5c, 0xc0, 0xda, 0x3d, 0x3a, 0xd3, 0x45, 0x41,
  0x50, 0x8d, 0xc4, 0xc0, 0xd7, 0xca, 0xf0, 0xc0, 0x83, 0x80, 0x55, 0x40,
  0xa8, 0xd8, 0x07, 0x40, 0x49, 0xc7, 0x70, 0xc0, 0xe0, 0x6e, 0xaf, 0xc0,
  0x17, 0x7d, 0x4b, 0x41, 0x3b, 0x30, 0xc5, 0x39, 0x42, 0x7c, 0x8f, 0xbb,
  0x68, 0xad, 0x1d, 0xbc, 0xe4, 0xba, 0x66, 0x41, 0xbc, 0x9d, 0x10, 0xbf,
  0xae, 0x16, 0xff, 0x40, 0x55, 0x1f, 0x13, 0x40, 0xd2, 0xf4, 0x5f, 0x3f,
  0xa6, 0x98, 0x39, 0xc0, 0x2a, 0x2f, 0xa0, 0xc0, 0xd6, 0x22, 0x7e, 0xc0,
  0x06, 0x32, 0x82, 0x3a, 0x01, 0x97, 0xdc, 0xc0, 0x89, 0x66, 0xdf, 0x3f,
  0xec, 0x08, 0x3e, 0xc1, 0x76, 0x32, 0x1b, 0xc1, 0x5b, 0xa3, 0x2b, 0xc1,
  0xed, 0x31, 0x24, 0x40, 0xdf, 0x05, 0xa6, 0x38, 0x64, 0xe2, 0xda, 0x40,
  0x46, 0x14, 0xa0, 0xbe, 0x7e, 0x82, 0x2b, 0xc0, 0xec, 0xb9, 0xa6, 0xbf,
  0xef, 0x41, 0x89, 0xc0, 0xb1, 0x89, 0xb3, 0x40, 0x8d, 0x6a, 0x16, 0xc1,
  0x5b, 0x35, 0x5b, 0x41, 0x39, 0x34, 0x58, 0x41, 0x69, 0xfb, 0x61, 0xc1,
  0xe3, 0x15, 0xb6, 0x40, 0xe0, 0x62, 0xe9, 0xc0, 0xbb, 0x46, 0xb7, 0xc0,
  0xea, 0x50, 0x30, 0xba, 0x25, 0xbd, 0x0d, 0xc1, 0xf5, 0xc8, 0x04, 0x3a,
  0x9c, 0x4f, 0x8d, 0xc0, 0x8b, 0x19, 0x2a, 0x40, 0xde, 0x1a, 0x93, 0x40,
  0xf1, 0xd1, 0x5a, 0x39, 0x63, 0xf2, 0xfc, 0x40, 0x79, 0xf7, 0xd3, 0x3c,
  0x32, 0x43, 0xf5, 0x39, 0x73, 0xc4, 0x2b, 0xc1, 0x49, 0xd0, 0x83, 0xc0,
  0x3f, 0xe1, 0xe1, 0xc0, 0x54, 0xbc, 0x72, 0xc0, 0xb4, 0xf1, 0x73, 0xc0,
  0xa1, 0x17, 0x15, 0x41, 0x9c, 0x6d, 0x38, 0x3a, 0x41, 0xf8, 0x35, 0x41,
  0x38, 0x19, 0x81, 0x40, 0x63, 0x92, 0xb1, 0x39, 0x55, 0x31, 0x85, 0x3f,
  0xc1, 0xf2, 0x30, 0xc1, 0x01, 0xba, 0x68, 0xbf, 0xb6, 0xb9, 0xcd, 0x40,
  0xb4, 0xec, 0x4f, 0xbf, 0x89, 0xb1, 0x9f, 0x40, 0x2f, 0x96, 0xbd, 0x40,
  0x39, 0xef, 0x61, 0x41, 0x91, 0xd7, 0x1d, 0x40, 0xfd, 0x40, 0xf7, 0x3f,
  0xe4, 0x59, 0x86, 0xc0, 0xce, 0x1d, 0x05, 0xbc, 0xb9, 0x66, 0x07, 0x3b,
  0x4f, 0xdb, 0xe0, 0xbb, 0x3c, 0x76, 0x42, 0xbc, 0xf9, 0xd9, 0xfc, 0xbf,
  0x69, 0x07, 0x2e, 0x3f, 0x0c, 0xf7, 0x65, 0xc0, 0x60, 0x6a, 0x3d, 0xc0,
  0x12, 0xf8, 0x73, 0x41, 0xd1, 0xb5, 0x6d, 0x3f, 0xfd, 0x71, 0xc5, 0xc0,
  0x89, 0x1b, 0x93, 0xc0, 0xcb, 0x88, 0x0e, 0x3a, 0xf9, 0x8e, 0x24, 0xbf,
  0x7e, 0xed, 0xd6, 0x40, 0xc8, 0x87, 0x2c, 0xc0, 0x95, 0x54, 0x55, 0xc0,
  0x3d, 0x89, 0x22, 0x41, 0xbe, 0xa7, 0x32, 0xc0, 0x7c, 0x58, 0x72, 0x3a,
  0xb9, 0x69, 0x02, 0xbf, 0xdf, 0x5e, 0xe5, 0xbc, 0x28, 0x28, 0x52, 0x40,
  0x7e, 0x7b, 0xc3, 0xbf, 0xcf, 0x57, 0x82, 0x41, 0x48, 0xa3, 0xe0, 0x40,
  0x4a, 0x56, 0x0b, 0xbf, 0x8c, 0xa2, 0x35, 0x40, 0xd1, 0x26, 0x4d, 0xc1,
  0xae, 0xc0, 0x12, 0x40, 0xf5, 0x67, 0x8d, 0x41, 0xfa, 0xd0, 0x04, 0xc1,
  0x9e, 0x7b, 0x26, 0xc1, 0x91, 0xfd, 0x37, 0xbb, 0x52, 0xec, 0xdf, 0xc0,
  0x73, 0x0d, 0x37, 0x3a, 0x9d, 0x9d, 0x85, 0x3f, 0x47, 0x5d, 0x0a, 0x41,
  0xe8, 0x48, 0x19, 0xc1, 0x08, 0x9c, 0xad, 0x3a, 0x5a, 0x8c, 0x97, 0xc0,
  0x99, 0x09, 0x41, 0x3d, 0xf2, 0x68, 0x88, 0x3a, 0xba, 0xc0, 0x06, 0xbe,
  0x5e, 0x79, 0x3e, 0xba, 0x6d, 0x16, 0x45, 0x40, 0x46, 0xec, 0xe6, 0x3f,
  0x2c, 0xb4, 0x11, 0x40, 0x79, 0x59, 0x96, 0x40, 0x0c, 0xb0, 0x6d, 0x3a,
  0xc4, 0xcd, 0xbe, 0x3f, 0xec, 0xe2, 0x52, 0xc1, 0x91, 0x63, 0x52, 0x3a,
  0x6a, 0xea, 0xf7, 0xbe, 0x6c, 0xf2, 0xba, 0xc0, 0xd8, 0xc7, 0xc8, 0xc0,
  0xc4, 0xb8, 0x9b, 0xc0, 0x24, 0x8d, 0x7f, 0xc0, 0x44, 0xda, 0xa3, 0x40,
  0xfe, 0xdd, 0x1b, 0x41, 0x94, 0x8f, 0x4a, 0xc1, 0xb5, 0x95, 0xbe, 0xc0,
  0x2f, 0x73, 0xbf, 0x40, 0x4e, 0xb4, 0xc0, 0x40, 0xd7, 0x0b, 0xa7, 0xc0,
  0xbf, 0xeb, 0x33, 0x3b, 0xa1, 0x91, 0xd9, 0x39, 0x4b, 0xa2, 0x5d, 0x3a,
  0x1c, 0x58, 0x41, 0xc1, 0x24, 0x6f, 0x86, 0x3f, 0x2b, 0x66, 0xcd, 0x40,
  0xda, 0xfc, 0xa4, 0xc0, 0xc2, 0x60, 0xf0, 0xbe, 0x5d, 0x45, 0xf7, 0x3f,
  0x35, 0xf7, 0x19, 0xc0, 0x2b, 0x11, 0x4b, 0xc0, 0x1b, 0x0c, 0xf7, 0x3a,
  0xc0, 0x67, 0xea, 0xc0, 0x5a, 0x98, 0x85, 0xc0, 0xc6, 0xb3, 0xdb, 0xc0,
  0x69, 0x66, 0xa3, 0x40, 0xed, 0x8d, 0x92, 0xc0, 0x7f, 0x7b, 0xe7, 0xc1,
  0x27, 0xd5, 0x98, 0x3a, 0xa1, 0x12, 0x43, 0xc0, 0x5a, 0x8c, 0xa6, 0x40,
  0xce, 0x0a, 0xe7, 0x40, 0x81, 0xaf, 0x8f, 0xc1, 0xdc, 0x55, 0x37, 0xc1,
  0x56, 0x83, 0x81, 0x40, 0x07, 0x9e, 0x4a, 0x41, 0x31, 0x60, 0x36, 0xc1,
  0xc1, 0x48, 0x18, 0xbf, 0xd8, 0x4b, 0x40, 0xc0, 0xf5, 0x79, 0x78, 0xc1,
  0xc4, 0x5b, 0x00, 0x41, 0xca, 0x54, 0x8b, 0x41, 0x7c, 0x43, 0x8e, 0x3b,
  0x69, 0x21, 0x12, 0x41, 0xb3, 0x7d, 0x26, 0x3b, 0x0e, 0x6f, 0xfc, 0x3f,
  0x8b, 0x37, 0x9b, 0x40, 0x0c, 0x31, 0xce, 0x40, 0x4d, 0xab, 0xc3, 0x3a,
  0x87, 0x5d, 0x1b, 0x40, 0x30, 0x95, 0x78, 0x3d, 0x92, 0x3c, 0x10, 0x3b,
  0x5c, 0x72, 0xf0, 0x40, 0x2d, 0xc8, 0x9d, 0xc0, 0xdf, 0x84, 0xc8, 0x40,
  0x00, 0xbe, 0x74, 0x40, 0xe4, 0x60, 0x7d, 0x40, 0xf1, 0x54, 0x44, 0xc1,
  0xc3, 0x6b, 0x1f, 0x3b, 0x67, 0x47, 0xb7, 0xbf, 0x09, 0x3c, 0xd4, 0x40,
  0x5e, 0xf5, 0xcc, 0x3a, 0xe9, 0xd8, 0xcc, 0xc0, 0xfa, 0x07, 0x85, 0x40,
  0xb1, 0x0a, 0x7e, 0xc0, 0xd4, 0x34, 0x0d, 0xc0, 0x75, 0x26, 0xd9, 0x40,
  0xde, 0xd8, 0x06, 0xc1, 0xfc, 0x9c, 0x13, 0xc1, 0x7a, 0x9c, 0x81, 0xc1,
  0x87, 0xe0, 0xa5, 0xc0, 0xc3, 0x76, 0x01, 0xc1, 0xd0, 0x19, 0x34, 0x41,
  0xaa, 0x15, 0x23, 0xc1, 0x78, 0x7b, 0xfe, 0x3a, 0x22, 0x2c, 0x64, 0x3a,
  0xbe, 0x46, 0x10, 0xbb, 0x7e, 0xbe, 0x2e, 0xc0, 0x56, 0x80, 0x03, 0x3f,
  0x05, 0x77, 0x36, 0x3f, 0x66, 0x88, 0x14, 0xc1, 0xe7, 0x6e, 0x2c, 0xc1,
  0x00, 0xfe, 0x11, 0x40, 0x85, 0x0d, 0x2e, 0x41, 0x21, 0x8b, 0xfd, 0x40,
  0x63, 0x1c, 0xb4, 0x3a, 0xe5, 0xe5, 0x5f, 0xc0, 0xe5, 0xc7, 0x49, 0xc0,
  0x1a, 0x9d, 0x23, 0x41, 0xaf, 0x84, 0xfe, 0x40, 0x0b, 0xec, 0x0a, 0x41,
  0xe4, 0x34, 0x14, 0xc1, 0x38, 0x5b, 0x89, 0x3a, 0xd0, 0x80, 0x08, 0xc1,
  0x8f, 0x42, 0xdd, 0xbf, 0xff, 0x87, 0x1d, 0xc1, 0xd4, 0xb7, 0x4f, 0xc1,
  0xec, 0x60, 0x36, 0xc1, 0x0b, 0x96, 0xed, 0x40, 0xd8, 0x08, 0x80, 0x41,
  0xbe, 0x8c, 0xb7, 0xc0, 0xe2, 0x37, 0xb4, 0x3f, 0x6c, 0x72, 0x88, 0x41,
  0x1e, 0x67, 0xa4, 0xc0, 0xed, 0xf3, 0x6d, 0x40, 0x94, 0x24, 0x36, 0x41,
  0x9b, 0x8c, 0x8e, 0x3b, 0x06, 0x8d, 0xc4, 0xc0, 0x5e, 0xbc, 0xcf, 0x3a,
  0x7a, 0xac, 0xc1, 0x40, 0xe1, 0x20, 0xe5, 0xc0, 0x94, 0xc6, 0x5b, 0xbf,
  0x86, 0x56, 0x9d, 0x3a, 0x47, 0x5b, 0x29, 0xc1, 0x77, 0xfc, 0x42, 0x3d,
  0x42, 0x11, 0xb1, 0x3a, 0x9f, 0x5f, 0x15, 0x41, 0xf7, 0x54, 0x0c, 0x41,
  0xb2, 0x34, 0xa5, 0x40, 0xa8, 0x95, 0xd3, 0x3f, 0x8f, 0xba, 0x01, 0x41,
  0xa0, 0x1c, 0x83, 0xc0, 0x83, 0xa2, 0x03, 0x3b, 0xce, 0x23, 0x1a, 0xc1,
  0x6b, 0xdb, 0x84, 0xc0, 0x0b, 0xe5, 0x92, 0x3a, 0xb7, 0x00, 0xc8, 0x40,
  0x6a, 0x94, 0xce, 0x40, 0xf4, 0xa9, 0xda, 0x40, 0x97, 0x0c, 0x0c, 0xc0,
  0x79, 0xc6, 0x39, 0x41, 0x59, 0xef, 0xca, 0xc0, 0x6b, 0xf4, 0x00, 0xc1,
  0xac, 0x60, 0x14, 0x41, 0xf5, 0xbf, 0x6e, 0xc0, 0x3a, 0xfd, 0x65, 0x40,
  0x96, 0x9e, 0x2f, 0xc0, 0x98, 0xeb, 0x0b, 0x41, 0xea, 0x2b, 0x40, 0xba,
  0xe8, 0x7b, 0xb0, 0x3b, 0x30, 0xc8, 0x42, 0xba, 0x2e, 0x4e, 0x0e, 0x41,
  0x29, 0x7f, 0xba, 0x3f, 0x9f, 0x43, 0x04, 0xc1, 0xcd, 0xc4, 0xf9, 0xc0,
  0xaa, 0x57, 0xd7, 0x40, 0x86, 0xf3, 0x6b, 0xc1, 0x30, 0x4e, 0x2e, 0xc1,
  0x7c, 0xf4, 0x87, 0xc0, 0xe8, 0x0d, 0x34, 0xba, 0x4a, 0xbf, 0x2e, 0xc1,
  0xb3, 0x7b, 0xd1, 0x3f, 0x75, 0x66, 0xca, 0xc0, 0x51, 0xd6, 0x94, 0xc0,
  0x45, 0x90, 0xe5, 0xc0, 0x7b, 0x9a, 0xd4, 0xc0, 0xd7, 0x18, 0x53, 0xb9,
  0x48, 0xaa, 0x8c, 0x3f, 0xd6, 0xb6, 0x13, 0xc2, 0xf0, 0x0c, 0x95, 0x40,
  0xe0, 0xc0, 0x46, 0x41, 0x65, 0x07, 0x8a, 0x3e, 0x93, 0x0a, 0x84, 0xbf,
  0x99, 0x8c, 0x54, 0xc0, 0x55, 0x13, 0x2c, 0x40, 0x97, 0x1b, 0xab, 0xc1,
  0xeb, 0x56, 0x16, 0xc1, 0x8b, 0x5c, 0x33, 0x41, 0x11, 0x85, 0x31, 0xc0,
  0x26, 0x95, 0x9c, 0xc0, 0x99, 0x35, 0xa9, 0x3b, 0x92, 0xac, 0x01, 0x42,
  0xd6, 0xe8, 0x8f, 0xba, 0xe1, 0x2a, 0xa0, 0xc0, 0x77, 0xfc, 0x57, 0x41,
  0x60, 0x94, 0xa8, 0x40, 0x66, 0x36, 0x20, 0xba, 0x6b, 0xfc, 0xb1, 0x40,
  0xae, 0xe3, 0xed, 0xbc, 0xd2, 0x0f, 0x78, 0xba, 0xf8, 0xc9, 0x35, 0xc1,
  0x98, 0x6c, 0x08, 0xbf, 0xaf, 0x30, 0xd6, 0xbf, 0x3b, 0x99, 0xf9, 0xbf,
  0xf3, 0x54, 0xbf, 0xc0, 0xe9, 0x4b, 0xb3, 0xc0, 0xde, 0x6b, 0xb5, 0xba,
  0xcb, 0x98, 0x41, 0x41, 0x43, 0xf7, 0xc3, 0xc0, 0x4c, 0x1d, 0xb2, 0xba,
  0xd8, 0x5d, 0xbf, 0xc0, 0x39, 0x99, 0xac, 0xc0, 0xd4, 0x4b, 0x11, 0xc1,
  0xdc, 0x16, 0x0b, 0x41, 0xae, 0xbb, 0xc0, 0xbf, 0xa9, 0x49, 0x21, 0x41,
  0xc4, 0x79, 0x81, 0x40, 0x6d, 0xf8, 0x2a, 0xc1, 0x7d, 0xdc, 0xe4, 0x40,
  0x20, 0x6c, 0xdb, 0xc0, 0x37, 0x7d, 0xb2, 0x41, 0xde, 0x55, 0x33, 0xc1,
  0x65, 0xd0, 0x00, 0xb8, 0x20, 0x28, 0x8d, 0x3c, 0x52, 0xe6, 0x83, 0x3c,
  0x47, 0x78, 0x5a, 0xc1, 0xae, 0xde, 0x0a, 0x3f, 0x3b, 0x78, 0x67, 0x41,
  0xe8, 0x11, 0x19, 0xc1, 0x8b, 0x3a, 0xf7, 0xc1, 0xb3, 0xd7, 0xe2, 0x40,
  0x46, 0xe1, 0x3a, 0x41, 0xe7, 0x61, 0x83, 0x41, 0x45, 0x1e, 0xdc, 0x39,
  0xbd, 0x4e, 0xd8, 0xc0, 0xde, 0xcf, 0x13, 0xc1, 0x32, 0x17, 0xff, 0x40,
  0x90, 0x48, 0xc2, 0x41, 0x7f, 0x8c, 0xab, 0x41, 0xa2, 0x63, 0x2f, 0x41,
  0xf5, 0x32, 0x01, 0xb9, 0xc1, 0xca, 0x2f, 0xc1, 0x86, 0x52, 0x8d, 0x41,
  0x88, 0xf1, 0x09, 0x41, 0xc1, 0x64, 0xbc, 0xc1, 0x33, 0x25, 0xa7, 0xc1,
  0xd8, 0x3c, 0x80, 0xbf, 0x72, 0xdc, 0xd4, 0x41, 0xbc, 0xb9, 0xaf, 0xc1,
  0xe0, 0x3b, 0xbc, 0x41, 0x31, 0x0c, 0x3d, 0x41, 0xad, 0xe4, 0xe7, 0xc0,
  0x70, 0x27, 0x2f, 0x40, 0xb6, 0xc5, 0x41, 0x41, 0x18, 0x80, 0xe4, 0x3a,
  0x01, 0x33, 0x82, 0xc1, 0xd0, 0xbe, 0x47, 0x39, 0x1c, 0x00, 0xba, 0xbf,
  0xf3, 0x08, 0x66, 0xc1, 0xa9, 0x62, 0x35, 0x41, 0xe5, 0xd6, 0x47, 0xb9,
  0x12, 0xf0, 0xb1, 0xc1, 0x21, 0x22, 0x55, 0x3c, 0x1b, 0x3f, 0x41, 0x39,
  0xb9, 0x81, 0xbb, 0x41, 0x7c, 0x14, 0x1b, 0x41, 0x0c, 0x2c, 0x8d, 0x41,
  0xc2, 0xe7, 0xb6, 0x40, 0x66, 0x69, 0xad, 0xbf, 0xdb, 0x63, 0x7e, 0xc1,
  0x51, 0xdd, 0x95, 0x39, 0xf6, 0x5e, 0x1b, 0xc1, 0x79, 0xb5, 0x97, 0x40,
  0x13, 0xa6, 0x5e, 0xb6, 0x6b, 0x4b, 0x8d, 0xc0, 0x5a, 0xa2, 0x54, 0x41,
  0x23, 0xd8, 0x9d, 0x40, 0x0b, 0xf1, 0xa7, 0xc1, 0x05, 0xb6, 0xc4, 0x40,
  0xfc, 0xb6, 0xa8, 0xc1, 0x0f, 0x16, 0x7d, 0x3f, 0x93, 0x18, 0xe6, 0xc0,
  0x1e, 0x51, 0x9f, 0xbf, 0x0b, 0xdb, 0x84, 0x40, 0x6b, 0x4a, 0x66, 0x41,
  0x0e, 0x7b, 0x49, 0xc1, 0x32, 0x32, 0xfa, 0xba, 0xee, 0x02, 0x80, 0xba,
  0x8c, 0x75, 0x63, 0xb9, 0x22, 0x38, 0x4e, 0xc0, 0x8d, 0xbd, 0x81, 0xbf,
  0x10, 0x5b, 0x51, 0x40, 0xd1, 0xc3, 0x68, 0x41, 0xf7, 0x64, 0x2f, 0xc1,
  0x57, 0x05, 0x9a, 0x40, 0x95, 0x5c, 0x6a, 0x41, 0x36, 0xb8, 0x8b, 0x41,
  0x3f, 0x1d, 0xb6, 0xba, 0x03, 0xca, 0x28, 0xc1, 0x93, 0x6b, 0x15, 0xc1,
  0x3f, 0xc7, 0x23, 0x41, 0x25, 0x3a, 0xe8, 0x40, 0x92, 0x59, 0xd1, 0xc0,
  0x2d, 0xd9, 0xe8, 0x40, 0xe3, 0xd5, 0x81, 0xba, 0x10, 0x40, 0x41, 0xc0,
  0xcb, 0x86, 0x9f, 0x40, 0x20, 0xa5, 0x4c, 0x3f, 0x97, 0x63, 0xb1, 0xc0,
  0x1d, 0xbc, 0xec, 0xc0, 0x44, 0x3b, 0xf0, 0xc0, 0xed, 0x60, 0xf8, 0x40,
  0x24, 0x50, 0xed, 0xc0, 0x7e, 0x82, 0xe0, 0x40, 0xeb, 0x83, 0x5f, 0x41,
  0x8d, 0x0a, 0xb3, 0xc0, 0xde, 0xfd, 0x13, 0x41, 0x0e, 0x93, 0x28, 0x41,
  0x97, 0x7d, 0x69, 0xbb, 0x61, 0x0a, 0xb2, 0xc1, 0xc8, 0x12, 0x10, 0xbb,
  0xd6, 0x9b, 0x65, 0x40, 0xf6, 0x56, 0x5d, 0xc0, 0xf0, 0xfc, 0xfb, 0x40,
  0xdb, 0xbd, 0x85, 0xba, 0x2b, 0xd4, 0x87, 0xc1, 0x1b, 0xfb, 0x6a, 0xbd,
  0x60, 0x5e, 0xbd, 0xba, 0x2f, 0x71, 0x0d, 0x41, 0x5a, 0xc3, 0xec, 0x40,
  0xde, 0x72, 0xa3, 0x3f, 0x03, 0x66, 0x25, 0x41, 0xc7, 0x7b, 0x60, 0x3f,
  0xbe, 0x6c, 0x83, 0xc1, 0xb7, 0x99, 0xdd, 0xba, 0x23, 0xe5, 0xbd, 0xc0,
  0x6e, 0xdf, 0x0a, 0x41, 0xc4, 0xa5, 0xee, 0xba, 0x71, 0xb5, 0x98, 0x3b,
  0x8f, 0x52, 0xac, 0x3f, 0x27, 0xc7, 0xe8, 0x40, 0xf5, 0x8f, 0x1e, 0xc1,
  0xaa, 0x56, 0x14, 0x41, 0xd8, 0xd8, 0x31, 0xc1, 0xe5, 0x70, 0xb0, 0xc1,
  0xda, 0x92, 0x7c, 0x40, 0x23, 0x70, 0xb2, 0xc0, 0x6e, 0xdc, 0x21, 0x40,
  0x7a, 0x2b, 0x17, 0x41, 0x15, 0xfd, 0x0f, 0xc1, 0x60, 0x63, 0x4a, 0xb9,
  0x14, 0x0c, 0xbe, 0xbc, 0xc2, 0x99, 0x3a, 0xbd, 0x21, 0x29, 0x3e, 0x41,
  0x74, 0xf1, 0xb6, 0xbf, 0xfa, 0xda, 0x0c, 0xc1, 0x3c, 0xed, 0x4e, 0x41,
  0x55, 0x87, 0x60, 0xc1, 0xd6, 0x3f, 0x70, 0x3e, 0x6f, 0xe2, 0x05, 0x41,
  0x3c, 0x6a, 0x92, 0xc0, 0xa0, 0x6d, 0x0b, 0xb9, 0x90, 0x64, 0xdd, 0xc0,
  0x67, 0x0c, 0xb3, 0xbf, 0xa0, 0x29, 0xb1, 0x40, 0x35, 0x01, 0x5c, 0xc0,
  0xe5, 0x47, 0x3d, 0x41, 0x35, 0xaf, 0x28, 0xc1, 0x90, 0x13, 0x7a, 0xb9,
  0x9b, 0x86, 0xa6, 0xc0, 0xe4, 0x9c, 0xe5, 0xc0, 0x59, 0xc9, 0x24, 0xc0,
  0x89, 0x60, 0xd0, 0x40, 0x89, 0xfa, 0x8c, 0xc0, 0x2c, 0x6b, 0x82, 0x3f,
  0xc2, 0x60, 0xa5, 0x40, 0x2a, 0xd8, 0x3a, 0xc1, 0x24, 0xec, 0x01, 0x40,
  0x6c, 0xcf, 0xf0, 0x40, 0xbd, 0xa9, 0xb0, 0x40, 0x5a, 0xf9, 0x3b, 0x40,
  0xb1, 0xa2, 0xb0, 0xbd, 0x2d, 0xf2, 0x4c, 0xbb, 0x55, 0x56, 0x8e, 0x40,
  0xd2, 0x5b, 0x37, 0xba, 0x8e, 0xf6, 0x92, 0xbf, 0xdd, 0xdf, 0x9b, 0x3f,
  0xfd, 0xe3, 0x7b, 0x3e, 0xf6, 0xe5, 0x1c, 0x38, 0x68, 0x8c, 0x66, 0x40,
  0x47, 0xb2, 0x07, 0xbc, 0xe7, 0xff, 0x13, 0xb9, 0xb5, 0x4a, 0x51, 0x40,
  0x60, 0x95, 0x94, 0x41, 0xad, 0x17, 0x21, 0x41, 0x9c, 0xda, 0x42, 0x40,
  0x66, 0xa8, 0x99, 0xbf, 0x4f, 0x98, 0xfe, 0xc0, 0xf7, 0x8d, 0x42, 0xb9,
  0x70, 0xb4, 0x87, 0xc1, 0xfe, 0xb4, 0xc5, 0xc0, 0x8d, 0x1e, 0x27, 0xb9,
  0x59, 0x05, 0x90, 0xc0, 0x17, 0x52, 0x23, 0x41, 0xd6, 0x3e, 0x9c, 0x40,
  0x05, 0xf4, 0x24, 0xc0, 0x4a, 0x6f, 0xe5, 0x40, 0x21, 0x49, 0xfd, 0xc0,
  0xa0, 0x4a, 0x5c, 0xc0, 0x94, 0x89, 0x1d, 0xc0, 0x4b, 0x85, 0x87, 0xc0,
  0x10, 0xd6, 0xbb, 0x40, 0x3f, 0x3d, 0x4c, 0x3e, 0xa9, 0x3f, 0xb2, 0xc0,
  0xa6, 0xa8, 0x9e, 0xba, 0xad, 0xe4, 0x01, 0xbb, 0x08, 0xc1, 0x93, 0x3a,
  0x69, 0x41, 0x62, 0x40, 0xb0, 0x50, 0xe4, 0x3f, 0xf9, 0xb0, 0xbc, 0xc1,
  0x72, 0xb6, 0x42, 0xc1, 0x26, 0x4d, 0x1a, 0x41, 0x92, 0x05, 0x9b, 0xc1,
  0xef, 0x5b, 0x7d, 0xc0, 0xc8, 0x79, 0xf9, 0xc0, 0x3c, 0x0d, 0x8d, 0xb9,
  0xb7, 0xde, 0xf6, 0xc0, 0xa4, 0x6f, 0x18, 0x40, 0x14, 0xda, 0xbb, 0xc0,
  0x2b, 0x70, 0x4f, 0xbf, 0x0c, 0x66, 0x0a, 0x40, 0x4f, 0xbb, 0x12, 0xc1,
  0xc2, 0xb9, 0x1c, 0xb9, 0x1d, 0x4e, 0x3f, 0x3f, 0xd6, 0x42, 0x69, 0xc1,
  0xc8, 0x4d, 0xb4, 0x40, 0x11, 0x20, 0x12, 0xc0, 0x74, 0xd8, 0x63, 0x3f,
  0x74, 0x6a, 0x35, 0x41, 0x92, 0xf7, 0x2f, 0x40, 0x6f, 0xec, 0x21, 0x41,
  0x4e, 0x6d, 0x80, 0xc1, 0x03, 0xee, 0xda, 0xc0, 0x1b, 0x33, 0xcc, 0xbf,
  0x28, 0xef, 0x93, 0xbf, 0x4d, 0x43, 0xab, 0xbf, 0x32, 0x93, 0xac, 0x3b,
  0x63, 0xc1, 0xfd, 0x41, 0xe8, 0x23, 0x83, 0xba, 0x6a, 0x3a, 0xdc, 0xbf,
  0x0e, 0xb7, 0x0e, 0x40, 0x5a, 0xce, 0x11, 0x41, 0xb8, 0xdb, 0xda, 0xb9,
  0xf3, 0x12, 0x88, 0xbf, 0xa7, 0xd7, 0xcb, 0xbc, 0xc7, 0x5a, 0xac, 0xb9,
  0x61, 0xca, 0x06, 0xc0, 0xd7, 0x02, 0x97, 0xbf, 0x1d, 0xc4, 0x3d, 0x40,
  0xb9, 0x5c, 0x94, 0xc0, 0xf6, 0x4a, 0x77, 0xc0, 0x77, 0x76, 0xff, 0xc0,
  0x80, 0x95, 0x2d, 0xba, 0xc5, 0x81, 0xe4, 0x3f, 0x5f, 0x4f, 0x91, 0xc1,
  0xab, 0x18, 0x26, 0x39, 0xc3, 0x42, 0x25, 0xc1, 0x98, 0x56, 0x80, 0xc0,
  0x55, 0x41, 0x50, 0xc1, 0xa9, 0xe4, 0x41, 0x3e, 0x2a, 0x2f, 0x39, 0xbf,
  0x68, 0x62, 0x10, 0x41, 0xf8, 0x07, 0xd0, 0x40, 0x19, 0x91, 0xa3, 0xbf,
  0xfd, 0x51, 0xf2, 0xc0, 0x68, 0xf0, 0x3e, 0xc0, 0xb2, 0x0c, 0x40, 0x41,
  0xbf, 0x4b, 0x09, 0xc1, 0x33, 0x75, 0x1f, 0xb9, 0xb9, 0xe4, 0x8e, 0xbc,
  0xa2, 0x0f, 0xbb, 0xbc, 0xb2, 0xb1, 0xd2, 0xc0, 0x4f, 0xbf, 0xe7, 0xbe,
  0xbd, 0x5c, 0x28, 0x40, 0x4b, 0x47, 0x3b, 0x40, 0x45, 0x26, 0xee, 0xc0,
  0x5d, 0xaf, 0x84, 0xbf, 0x09, 0x10, 0xbe, 0x40, 0x1c, 0x21, 0x3a, 0x41,
  0x2e, 0x42, 0xb8, 0xb9, 0xfc, 0x8a, 0x96, 0xc0, 0xc4, 0x5d, 0x48, 0xc1,
  0xec, 0x59, 0x0b, 0x40, 0xc9, 0x34, 0xf4, 0x40, 0x76, 0xe7, 0x23, 0x41,
  0xab, 0x47, 0xe3, 0x40, 0x1d, 0x3a, 0x60, 0x39, 0xa6, 0x9d, 0xec, 0x40,
  0xaa, 0x58, 0xfe, 0x40, 0x76, 0x1a, 0x2b, 0x3f, 0xb2, 0xf4, 0xd5, 0xc0,
  0xe7, 0x0f, 0x85, 0xc1, 0xdf, 0x06, 0xf6, 0x40, 0xeb, 0xe1, 0x9d, 0x40,
  0x16, 0x66, 0x5a, 0xc1, 0x09, 0x32, 0x88, 0x40, 0xcc, 0x57, 0x87, 0xc0,
  0xb0, 0x5a, 0x76, 0xc1, 0x5c, 0x44, 0xda, 0x3f, 0x37, 0x90, 0x19, 0xbf,
  0x2a, 0x2a, 0x92, 0xb9, 0x1d, 0x79, 0x80, 0x41, 0x88, 0xb1, 0xc9, 0xb9,
  0x41, 0x4a, 0xb4, 0x3f, 0x7d, 0x59, 0x97, 0x40, 0x8e, 0xf9, 0x30, 0x41,
  0x07, 0x28, 0x05, 0x39, 0xa3, 0x7b, 0xb8, 0xc1, 0xec, 0x77, 0xaf, 0x3b,
  0x69, 0xcb, 0x7d, 0xb9, 0xc1, 0x50, 0x22, 0x41, 0xa7, 0x1b, 0x12, 0x41,
  0xe6, 0xb5, 0x9b, 0x41, 0x29, 0x36, 0xf8, 0xbf, 0xf3, 0x25, 0x5e, 0x40,
  0x13, 0x6c, 0xd7, 0xc0, 0xcf, 0xb9, 0xa5, 0x39, 0x5f, 0xbc, 0x81, 0xc0,
  0xee, 0x1f, 0x9c, 0xc0, 0x4d, 0x94, 0x8c, 0x37, 0x5a, 0xb9, 0x5d, 0xbf,
  0x46, 0x92, 0x40, 0xc1, 0x99, 0x2f, 0x83, 0xc0, 0xe5, 0xfa, 0x98, 0x3f,
  0x0e, 0x36, 0x15, 0x41, 0x0c, 0x7d, 0xa8, 0xc0, 0xe3, 0x8b, 0x7c, 0x41,
  0xf7, 0xb8, 0xda, 0x3f, 0x39, 0xe3, 0xe0, 0xbf, 0x21, 0x0c, 0x64, 0xbf,
  0x56, 0xc5, 0x02, 0x41, 0xa7, 0x44, 0x04, 0xc1, 0x69, 0x8a, 0x99, 0xb8,
  0xee, 0xb3, 0x94, 0xbc, 0xcf, 0x23, 0xad, 0xbc, 0x53, 0xd1, 0xe4, 0xc0,
  0x5d, 0xe8, 0x3d, 0xbf, 0x30, 0x8f, 0xce, 0x40, 0x87, 0x80, 0x80, 0xc0,
  0xaa, 0xe6, 0x4b, 0x41, 0xe4, 0x9c, 0x6e, 0x41, 0x7b, 0x26, 0x1e, 0xc0,
  0x01, 0x4d, 0x15, 0xc1, 0xbc, 0x37, 0xca, 0x38, 0xc4, 0x8f, 0xe1, 0xc0,
  0xbc, 0x34, 0x95, 0x40, 0x5f, 0x12, 0x4a, 0xc0, 0x53, 0xb6, 0x9e, 0x40,
  0x2f, 0x2f, 0x33, 0x41, 0x89, 0x3a, 0xb4, 0x40, 0xc4, 0x39, 0xc8, 0xb8,
  0x2d, 0xe1, 0x40, 0x41, 0xb0, 0x37, 0x27, 0xc0, 0x21, 0x9c, 0xc1, 0x40,
  0x48, 0x8a, 0x57, 0xc1, 0x6d, 0xde, 0x56, 0xc1, 0x31, 0xdc, 0xc3, 0xc0,
  0x35, 0xc3, 0x93, 0x40, 0x91, 0x86, 0x6c, 0xc1, 0x46, 0x78, 0xdc, 0xbf,
  0x9d, 0xaa, 0x0a, 0x41, 0x7f, 0xf4, 0x48, 0xc1, 0x9d, 0x4c, 0xe6, 0x40,
  0x57, 0x82, 0xc9, 0xbf, 0xab, 0x48, 0xdd, 0xb9, 0x43, 0x9b, 0x92, 0x40,
  0x1d, 0xda, 0x01, 0xba, 0x29, 0x30, 0x0b, 0x41, 0xca, 0x16, 0x03, 0xc1,
  0xa5, 0x58, 0x50, 0xc1, 0x0b, 0xdb, 0xa1, 0xb6, 0x6a, 0x13, 0x3b, 0xc1,
  0x81, 0x90, 0x1b, 0x3c, 0x25, 0xf9, 0xc6, 0xb8, 0x5c, 0x52, 0x96, 0x41,
  0xc6, 0x28, 0xda, 0x40, 0x50, 0xc7, 0x35, 0x41, 0xd5, 0x70, 0x86, 0x40,
  0x7e, 0xa0, 0x20, 0x40, 0x86, 0x19, 0xb4, 0x40, 0xcf, 0x70, 0x3b, 0x38,
  0xd6, 0xf6, 0x6b, 0xc1, 0xc4, 0x62, 0x56, 0xc0, 0xb4, 0x1b, 0xd8, 0xb9,
  0xca, 0xeb, 0xf9, 0xc0, 0xfa, 0x92, 0x58, 0x41, 0xcb, 0x46, 0xc2, 0x40,
  0xc7, 0x3f, 0x79, 0xc1, 0x7c, 0x2e, 0x89, 0x41, 0x89, 0xf0, 0x6f, 0x40,
  0xa9, 0xd1, 0x18, 0xbf, 0x1e, 0x3f, 0x82, 0xc0, 0x2b, 0xf4, 0x43, 0x40,
  0x60, 0xd3, 0x82, 0xbf, 0xa5, 0xfd, 0x06, 0x41, 0xac, 0x38, 0xdc, 0x3f,
  0x0f, 0x63, 0x93, 0x37, 0xe6, 0xea, 0xc8, 0x3a, 0x05, 0x21, 0x92, 0x3a,
  0xbe, 0xac, 0x2d, 0xc0, 0x14, 0xae, 0xc3, 0x3f, 0xff, 0x97, 0x39, 0xbf,
  0xc2, 0x10, 0xbf, 0xc0, 0x83, 0xf1, 0xf8, 0x3f, 0x0d, 0x16, 0xfd, 0xbf,
  0x61, 0xca, 0x62, 0xbe, 0x4e, 0xdb, 0x26, 0x41, 0x7e, 0x71, 0xb5, 0xb9,
  0xec, 0x27, 0x5a, 0x40, 0xa2, 0x54, 0xb6, 0xbf, 0xb9, 0x73, 0x76, 0x3f,
  0x48, 0x61, 0x20, 0xc0, 0xa6, 0xff, 0x32, 0xc0, 0x1d, 0xd3, 0x4c, 0xc1,
  0xf9, 0x73, 0x4a, 0xb9, 0x02, 0x16, 0x9f, 0x3f, 0xbf, 0x86, 0xa9, 0xc0,
  0xc4, 0xac, 0x4f, 0x40, 0xcc, 0x4a, 0x88, 0x3f, 0x7a, 0xdc, 0x36, 0xc0,
  0x1d, 0x9e, 0x96, 0x40, 0x5f, 0xa7, 0xe7, 0xc0, 0x75, 0xf4, 0xd2, 0x3f,
  0xad, 0xba, 0x00, 0xc1, 0x45, 0x37, 0x0e, 0x41, 0x8e, 0xec, 0x03, 0xc1,
  0x67, 0x2d, 0xc2, 0x40, 0x23, 0x71, 0x79, 0x3f, 0x63, 0xca, 0xab, 0x3c,
  0x32, 0x34, 0xd4, 0x41, 0x66, 0x78, 0xfa, 0xb8, 0x7e, 0x12, 0x61, 0xc0,
  0x96, 0x32, 0xc4, 0xc0, 0x34, 0x14, 0x3e, 0x41, 0xe0, 0x75, 0x24, 0xb8,
  0x34, 0xfc, 0x97, 0xbf, 0xb0, 0xec, 0x18, 0x3c, 0x47, 0x7c, 0x00, 0xba,
  0x0f, 0x35, 0x45, 0x3e, 0xcd, 0xc0, 0x8b, 0xc0, 0xf5, 0x6c, 0x7d, 0xc0,
  0xfd, 0x63, 0xc6, 0xc0, 0x21, 0x7a, 0x21, 0xc0, 0x2c, 0x1b, 0x27, 0x3f,
  0xf8, 0xc9, 0x39, 0xb9, 0x84, 0xca, 0x75, 0x3f, 0xb4, 0xcf, 0x93, 0xc0,
  0x6d, 0x63, 0x8e, 0xba, 0xbc, 0x4e, 0xb4, 0xc0, 0x98, 0xdf, 0x9b, 0xc0,
  0xfb, 0xbb, 0xf1, 0x40, 0xcb, 0x38, 0x05, 0x40, 0x50, 0x3b, 0x20, 0xbf,
  0x85, 0x7e, 0x8e, 0xc0, 0xa8, 0x44, 0x1b, 0x40, 0x33, 0x69, 0x26, 0xc1,
  0xc5, 0xa9, 0x0f, 0x3f, 0xc8, 0x46, 0x22, 0x41, 0x72, 0x1d, 0x68, 0xc0,
  0xb1, 0xe0, 0xac, 0xc0, 0xbd, 0x2a, 0x8d, 0x3a, 0xf2, 0x40, 0xe1, 0x3c,
  0x26, 0xeb, 0xef, 0x3c, 0x0a, 0x5b, 0xb3, 0x40, 0x65, 0x8d, 0x67, 0x3f,
  0x08, 0x1d, 0x2a, 0x41, 0x39, 0xed, 0xdd, 0xc0, 0xbe, 0xa9, 0x6e, 0xc0,
  0x2a, 0x7b, 0x0d, 0x41, 0x63, 0x47, 0xfa, 0x40, 0xa7, 0x44, 0x0c, 0x41,
  0x29, 0xd8, 0xbb, 0x39, 0x75, 0xa0, 0x0c, 0xc1, 0x65, 0x3e, 0xb6, 0xc0,
  0xc8, 0x72, 0x5f, 0x40, 0x79, 0xf4, 0x22, 0x41, 0x38, 0x19, 0xa4, 0x40,
  0x93, 0xf4, 0x64, 0x40, 0x13, 0xb1, 0x3c, 0x39, 0xf5, 0xbe, 0x2e, 0xc1,
  0xe1, 0xbd, 0x30, 0x41, 0x5a, 0x73, 0x9b, 0xbe, 0x03, 0x48, 0x89, 0xc1,
  0xd5, 0x87, 0x35, 0xc0, 0x38, 0xcd, 0xc8, 0xc0, 0xd8, 0x6b, 0x38, 0x41,
  0x98, 0xb3, 0x26, 0xc1, 0x92, 0x98, 0x85, 0x41, 0x8a, 0x20, 0x95, 0x41,
  0x1e, 0x57, 0x0d, 0xc0, 0x06, 0x73, 0x22, 0x41, 0x57, 0x7f, 0xe0, 0x3f,
  0x26, 0xca, 0x5c, 0x3b, 0x38, 0x2a, 0x10, 0x40, 0xbd, 0x83, 0x1a, 0x3a,
  0x33, 0xe8, 0xeb, 0x3d, 0x94, 0x1d, 0xbe, 0xc0, 0xe8, 0x49, 0xbd, 0xc0,
  0x2d, 0x70, 0x11, 0x3a, 0x88, 0x28, 0xb8, 0xc0, 0x62, 0x32, 0x92, 0x3c,
  0x78, 0x30, 0x1d, 0xba, 0xce, 0x28, 0x13, 0x41, 0x07, 0xbb, 0x4a, 0x40,
  0xa4, 0x67, 0x22, 0x41, 0x7d, 0xe5, 0x0f, 0x41, 0x11, 0xc5, 0x89, 0x40,
  0xa4, 0x2b, 0xa2, 0xc0, 0x9e, 0xc6, 0xb8, 0x39, 0x33, 0x61, 0x2a, 0xc1,
  0x1e, 0xd6, 0x93, 0x3f, 0x1e, 0xfc, 0xbf, 0x39, 0x00, 0x23, 0x5f, 0xc1,
  0xbc, 0xb6, 0x42, 0xc0, 0xe0, 0x4d, 0x52, 0x40, 0x10, 0xfb, 0x5e, 0x40,
  0x31, 0x91, 0xd3, 0x40, 0x0f, 0xa1, 0x13, 0x41, 0xe3, 0x1a, 0x0c, 0xc1,
  0x2f, 0x7f, 0x8a, 0xbf, 0xbf, 0xc7, 0xe2, 0x3f, 0xbf, 0xcb, 0xb0, 0xbf,
  0x1b, 0x07, 0x9b, 0x40, 0x6e, 0x6a, 0x3e, 0xc1, 0x0b, 0xfc, 0xf4, 0xba,
  0x4e, 0xbf, 0x66, 0x3a, 0xca, 0x9c, 0x4c, 0x3a, 0x92, 0xf7, 0x3c, 0x40,
  0x20, 0xc2, 0xb9, 0xbf, 0x1f, 0xcc, 0xfa, 0x40, 0x57, 0x38, 0x24, 0xbe,
  0xcc, 0xb5, 0x17, 0xc1, 0x79, 0x99, 0x8c, 0x40, 0xcc, 0x70, 0xa9, 0x3f,
  0xa6, 0x48, 0x30, 0x40, 0xec, 0x9e, 0x00, 0xbb, 0x38, 0x80, 0xb4, 0xc0,
  0x1e, 0xc3, 0xd0, 0xc0, 0x24, 0x4a, 0x25, 0x41, 0xd4, 0x16, 0xa1, 0xc0,
  0x94, 0xae, 0x64, 0x40, 0x4e, 0xbf, 0xa1, 0xbf, 0xc0, 0x1d, 0x8d, 0xba,
  0xe6, 0x8a, 0x8b, 0x40, 0x95, 0xf8, 0x4e, 0x41, 0xfe, 0xa0, 0x47, 0x40,
  0xb6, 0x88, 0xbb, 0xc0, 0x6a, 0xe0, 0xbd, 0xc0, 0x7f, 0x81, 0x85, 0xc0,
  0x2e, 0x9e, 0x79, 0x40, 0xc3, 0xf1, 0x4b, 0xc0, 0xd4, 0xac, 0x37, 0xc1,
  0x67, 0x25, 0x07, 0xc0, 0xd6, 0xdf, 0x12, 0x41, 0xc8, 0xe9, 0x0a, 0x41,
  0x2d, 0xcc, 0x8e, 0x40, 0x40, 0xc4, 0x84, 0xbb, 0xe6, 0xf7, 0x3b, 0xc1,
  0x23, 0x0a, 0x2e, 0xbb, 0x43, 0x3c, 0xc4, 0xbf, 0x9d, 0x21, 0xd7, 0x40,
  0x77, 0x3a, 0x54, 0x40, 0xca, 0x8f, 0xca, 0xba, 0x15, 0x0e, 0xe4, 0xbf,
  0x71, 0x48, 0x87, 0xbd, 0x5a, 0x15, 0xc9, 0xba, 0x45, 0xf5, 0x06, 0x41,
  0x11, 0x08, 0x10, 0x41, 0xa5, 0xe3, 0xd9, 0x3f, 0xc5, 0x68, 0x2e, 0x3f,
  0x37, 0x6a, 0x30, 0x40, 0xed, 0x68, 0x3e, 0xc1, 0xf9, 0xae, 0xe0, 0xba,
  0xa7, 0x62, 0xc9, 0xc0, 0xb9, 0x85, 0x81, 0xc0, 0x56, 0xf1, 0x0c, 0xbb,
  0xbf, 0xdb, 0x83, 0x41, 0x0c, 0x79, 0x07, 0x41, 0x61, 0x34, 0x1c, 0xc1,
  0x83, 0xcb, 0xed, 0xbf, 0x9e, 0x3e, 0xa7, 0x40, 0x27, 0xfe, 0xfb, 0xc0,
  0x18, 0xf2, 0xa9, 0xc0, 0xb9, 0xaa, 0xae, 0xc0, 0x5a, 0x89, 0xe9, 0xc0,
  0xc4, 0xc9, 0xbf, 0xc0, 0x84, 0x40, 0x9b, 0xc0, 0x0b, 0x92, 0x01, 0xc0,
  0xcd, 0x06, 0x8b, 0x3a, 0xdf, 0xd0, 0xe8, 0xbb, 0xd3, 0x6b, 0xe9, 0xbb,
  0x11, 0xec, 0xe8, 0xc0, 0x0a, 0x0e, 0xad, 0xbf, 0x9d, 0xa9, 0xa4, 0xbf,
  0xff, 0x60, 0x87, 0x41, 0x43, 0x8a, 0x8a, 0xc0, 0x3c, 0x71, 0xdd, 0xc0,
  0xc2, 0x2b, 0x11, 0xc0, 0x25, 0xc1, 0x81, 0xbf, 0xbf, 0xda, 0x8e, 0x3a,
  0xf5, 0x5b, 0xf9, 0xc0, 0xd8, 0xbe, 0xb3, 0xc0, 0x2f, 0x0c, 0xa7, 0xc0,
  0x42, 0x39, 0x08, 0xbe, 0x64, 0x4e, 0x95, 0x40, 0xcf, 0xfa, 0x2d, 0x40,
  0x70, 0x24, 0x2f, 0x3a, 0x9c, 0x2c, 0x5f, 0x40, 0x5d, 0x59, 0x34, 0x40,
  0x97, 0x0c, 0xcf, 0xbf, 0xd7, 0xd7, 0x9c, 0xc0, 0xc3, 0x4a, 0xd3, 0xc0,
  0x98, 0xed, 0x80, 0xc0, 0xee, 0xc0, 0xa7, 0xbe, 0xd2, 0xbe, 0xc9, 0x3f,
  0x87, 0x38, 0xae, 0xbe, 0xa3, 0xb1, 0xff, 0x40, 0x5e, 0xcc, 0x77, 0x41,
  0x7d, 0xb7, 0x96, 0x3f, 0xf4, 0xdb, 0xcf, 0x40, 0xae, 0xa8, 0x95, 0xbb,
  0xbd, 0x09, 0x44, 0xc1, 0xdd, 0x0a, 0xca, 0x3a, 0xbd, 0x01, 0x51, 0x40,
  0xc9, 0x2a, 0xd6, 0xbf, 0x7c, 0x9d, 0xb2, 0xc1, 0x52, 0xc3, 0xae, 0x3a,
  0xe7, 0x90, 0x2f, 0xc0, 0x30, 0xc2, 0x38, 0x3d, 0x42, 0x6e, 0x48, 0x3a,
  0x3d, 0x1a, 0x86, 0x40, 0xc4, 0x6e, 0x90, 0x40, 0xab, 0xa9, 0xdd, 0x40,
  0x42, 0x5a, 0x79, 0x40, 0x9c, 0xe6, 0x13, 0x41, 0x61, 0xec, 0x82, 0x41,
  0xff, 0x1c, 0x02, 0x3b, 0x40, 0x08, 0xd9, 0x40, 0x80, 0xed, 0x26, 0x41,
  0x35, 0x5f, 0xdb, 0x3a, 0x8d, 0xae, 0x8e, 0xc0, 0x7e, 0xc2, 0xa6, 0x3f,
  0xa9, 0x4e, 0x89, 0x40, 0x46, 0xc4, 0xea, 0x3f, 0xd3, 0x6b, 0x32, 0x41,
  0x91, 0x27, 0x22, 0xc0, 0x03, 0xa2, 0x5b, 0xc0, 0x42, 0xfd, 0xff, 0xff,
  0x04, 0x00, 0x00, 0x00, 0x10, 0x00, 0x00, 0x00, 0x89, 0x4a, 0xb2, 0xbd,
  0x37, 0xea, 0x70, 0xc1, 0x00, 0xd1, 0x01, 0xbf, 0xcb, 0xbc, 0x9f, 0x3f,
  0x5e, 0xfd, 0xff, 0xff, 0x04, 0x00, 0x00, 0x00, 0x00, 0x02, 0x00, 0x00,
  0x8f, 0x33, 0x1c, 0x3f, 0xff, 0xee, 0x5f, 0x3e, 0x7b, 0x3f, 0x64, 0x3d,
  0x0d, 0xfb, 0xe3, 0x3d, 0x80, 0xe9, 0x81, 0x3d, 0x75, 0x20, 0x60, 0xbe,
  0x7f, 0xec, 0x34, 0x3d, 0x22, 0x7f, 0x9a, 0xbd, 0x05, 0xa5, 0x38, 0x3e,
  0x9e, 0xfc, 0x27, 0xbe, 0x69, 0x53, 0x5f, 0xbe, 0xb8, 0xb3, 0xae, 0x3e,
  0x66, 0x35, 0x0c, 0x3e, 0xfe, 0xda, 0xf2, 0xbd, 0xde, 0x38, 0x96, 0x3e,
  0x65, 0x9c, 0x42, 0x3d, 0xe3, 0x19, 0xd2, 0xbb, 0x6e, 0xa3, 0x5c, 0x40,
  0x33, 0x59, 0x3b, 0x3e, 0xb6, 0x26, 0xc4, 0x3d, 0x8c, 0x7f, 0x5d, 0x3e,
  0x60, 0x9c, 0x34, 0xc1, 0xe8, 0xe2, 0xd0, 0xbd, 0xbb, 0x75, 0x33, 0xbe,
  0x5f, 0xec, 0x17, 0x3c, 0x79, 0x6c, 0x99, 0xbf, 0x72, 0x1b, 0x87, 0xbd,
  0x28, 0x30, 0x78, 0xbd, 0xf4, 0x5c, 0x30, 0xbe, 0xde, 0x15, 0xbc, 0x3d,
  0x9e, 0xbc, 0x46, 0xbe, 0xa8, 0xb7, 0x21, 0xbe, 0xea, 0x9c, 0x32, 0xbf,
  0x7c, 0x6a, 0x45, 0xbe, 0xbd, 0xf7, 0x2d, 0xbf, 0x51, 0x9b, 0x0b, 0xbc,
  0x30, 0x69, 0x70, 0xbe, 0x7c, 0xad, 0x48, 0x3f, 0x73, 0xcb, 0xe5, 0xbc,
  0x0b, 0x3e, 0xa5, 0xbe, 0x82, 0x79, 0xeb, 0xbe, 0x10, 0xbe, 0x71, 0xbe,
  0x54, 0x08, 0x32, 0xbe, 0xf0, 0x64, 0x9c, 0xbb, 0xeb, 0x87, 0x82, 0x3e,
  0x04, 0x66, 0x24, 0x3f, 0xfe, 0x76, 0xdd, 0x3b, 0xc1, 0xb1, 0x38, 0x3b,
  0x79, 0xd7, 0x30, 0x3e, 0x53, 0x69, 0x6b, 0x40, 0xd6, 0x23, 0x47, 0xbf,
  0xfb, 0xf6, 0x61, 0x3e, 0xc3, 0x38, 0x91, 0x3e, 0x51, 0x9e, 0xea, 0x3f,
  0x20, 0x09, 0x2c, 0x3d, 0x74, 0x56, 0xb8, 0xbe, 0x59, 0xe9, 0xee, 0xbd,
  0xd6, 0xfb, 0xa4, 0x40, 0x21, 0x9f, 0x73, 0x3d, 0x62, 0xae, 0xa2, 0xbd,
  0xb2, 0x2f, 0x38, 0x3d, 0x7d, 0xbc, 0x74, 0xbe, 0x00, 0x59, 0xaf, 0xbe,
  0x8f, 0xd8, 0x2c, 0x3f, 0xad, 0x74, 0x75, 0x3d, 0xe2, 0x6d, 0x35, 0xbd,
  0x39, 0x9f, 0x05, 0xbe, 0x5d, 0x39, 0x0c, 0xbe, 0x35, 0x3d, 0xf1, 0xbd,
  0x66, 0xaf, 0x01, 0x3e, 0x7e, 0xcd, 0xd2, 0x3d, 0xf5, 0x92, 0x0f, 0x3e,
  0x40, 0xae, 0x41, 0xbe, 0xb4, 0x38, 0xe1, 0xbc, 0xe0, 0x1f, 0x0a, 0x3e,
  0x02, 0xd1, 0x20, 0x3d, 0x2d, 0x4e, 0xf3, 0xbd, 0x53, 0x44, 0x73, 0x3e,
  0xb4, 0xa3, 0xd3, 0x3d, 0x56, 0x8c, 0x2d, 0x3e, 0x4e, 0x45, 0x31, 0xbe,
  0xe1, 0xd8, 0xb4, 0x3f, 0x0d, 0x26, 0x95, 0xbe, 0x31, 0x80, 0xaf, 0xbd,
  0xe8, 0x97, 0xa1, 0xbc, 0xfd, 0x05, 0x87, 0x40, 0x52, 0xaa, 0x63, 0xbe,
  0x12, 0x60, 0x5a, 0x3d, 0x10, 0x63, 0xa7, 0x3d, 0xfb, 0xcb, 0x62, 0xbe,
  0x73, 0xdb, 0xee, 0x3d, 0xc4, 0x99, 0x77, 0x3d, 0x71, 0x9b, 0xd8, 0x3c,
  0xc8, 0x17, 0xdc, 0xbd, 0xfe, 0x29, 0x04, 0x3e, 0xcc, 0x0a, 0x2d, 0x3c,
  0x17, 0x4e, 0xf8, 0x3e, 0xf8, 0xd5, 0x85, 0xbd, 0x20, 0x2f, 0xf6, 0x3d,
  0x33, 0x26, 0xea, 0xbd, 0x79, 0x3b, 0xe2, 0x3d, 0x34, 0xd1, 0x71, 0xbd,
  0x17, 0xa3, 0x20, 0xbe, 0x71, 0x58, 0x32, 0x3e, 0x44, 0xf9, 0x23, 0x3d,
  0x7d, 0x72, 0xc7, 0x3b, 0x93, 0xb6, 0x0b, 0x3e, 0x2f, 0x53, 0xe3, 0x3d,
  0x2b, 0x2e, 0xce, 0xbc, 0x96, 0xee, 0xac, 0x3c, 0xfd, 0xca, 0x1f, 0x3d,
  0x2d, 0xe0, 0xb7, 0xbd, 0x79, 0xef, 0x44, 0xbe, 0xc5, 0xea, 0xda, 0xc0,
  0x09, 0x57, 0x62, 0x3e, 0x32, 0xe7, 0xdc, 0xbd, 0x99, 0xdc, 0x91, 0xbd,
  0x8b, 0x84, 0x81, 0x40, 0xd5, 0x08, 0x90, 0x3c, 0x81, 0xcd, 0xaf, 0x3d,
  0x7e, 0x21, 0x2b, 0xbe, 0x0e, 0x99, 0xd2, 0x3f, 0x24, 0xe1, 0x10, 0xbe,
  0xb0, 0x72, 0x5a, 0xbe, 0x6a, 0x41, 0x2c, 0x3e, 0x10, 0xc3, 0x2c, 0x3e,
  0x21, 0xa2, 0x12, 0x3e, 0xdc, 0x4c, 0x51, 0x3c, 0x9c, 0xf9, 0xff, 0xff,
  0xa0, 0xf9, 0xff, 0xff, 0x0f, 0x00, 0x00, 0x00, 0x4d, 0x4c, 0x49, 0x52,
  0x20, 0x43, 0x6f, 0x6e, 0x76, 0x65, 0x72, 0x74, 0x65, 0x64, 0x2e, 0x00,
  0x01, 0x00, 0x00, 0x00, 0x14, 0x00, 0x00, 0x00, 0x00, 0x00, 0x0e, 0x00,
  0x18, 0x00, 0x14, 0x00, 0x10, 0x00, 0x0c, 0x00, 0x08, 0x00, 0x04, 0x00,
  0x0e, 0x00, 0x00, 0x00, 0x14, 0x00, 0x00, 0x00, 0x1c, 0x00, 0x00, 0x00,
  0x24, 0x01, 0x00, 0x00, 0x28, 0x01, 0x00, 0x00, 0x2c, 0x01, 0x00, 0x00,
  0x04, 0x00, 0x00, 0x00, 0x6d, 0x61, 0x69, 0x6e, 0x00, 0x00, 0x00, 0x00,
  0x04, 0x00, 0x00, 0x00, 0xcc, 0x00, 0x00, 0x00, 0x84, 0x00, 0x00, 0x00,
  0x50, 0x00, 0x00, 0x00, 0x14, 0x00, 0x00, 0x00, 0x00, 0x00, 0x0e, 0x00,
  0x1a, 0x00, 0x14, 0x00, 0x10, 0x00, 0x0c, 0x00, 0x0b, 0x00, 0x04, 0x00,
  0x0e, 0x00, 0x00, 0x00, 0x1c, 0x00, 0x00, 0x00, 0x00, 0x00, 0x00, 0x09,
  0x1c, 0x00, 0x00, 0x00, 0x20, 0x00, 0x00, 0x00, 0x01, 0x00, 0x00, 0x00,
  0x00, 0x00, 0x06, 0x00, 0x08, 0x00, 0x04, 0x00, 0x06, 0x00, 0x00, 0x00,
  0x00, 0x00, 0x80, 0x3f, 0x01, 0x00, 0x00, 0x00, 0x0a, 0x00, 0x00, 0x00,
  0x01, 0x00, 0x00, 0x00, 0x09, 0x00, 0x00, 0x00, 0x9a, 0xff, 0xff, 0xff,
  0x10, 0x00, 0x00, 0x00, 0x00, 0x00, 0x00, 0x08, 0x0c, 0x00, 0x00, 0x00,
  0x10, 0x00, 0x00, 0x00, 0x64, 0xfa, 0xff, 0xff, 0x01, 0x00, 0x00, 0x00,
  0x09, 0x00, 0x00, 0x00, 0x03, 0x00, 0x00, 0x00, 0x08, 0x00, 0x00, 0x00,
  0x01, 0x00, 0x00, 0x00, 0x02, 0x00, 0x00, 0x00, 0xca, 0xff, 0xff, 0xff,
  0x10, 0x00, 0x00, 0x00, 0x00, 0x00, 0x00, 0x08, 0x10, 0x00, 0x00, 0x00,
  0x14, 0x00, 0x00, 0x00, 0xba, 0xff, 0xff, 0xff, 0x00, 0x00, 0x00, 0x01,
  0x01, 0x00, 0x00, 0x00, 0x08, 0x00, 0x00, 0x00, 0x03, 0x00, 0x00, 0x00,
  0x07, 0x00, 0x00, 0x00, 0x03, 0x00, 0x00, 0x00, 0x04, 0x00, 0x00, 0x00,
  0x00, 0x00, 0x0e, 0x00, 0x16, 0x00, 0x00, 0x00, 0x10, 0x00, 0x0c, 0x00,
  0x0b, 0x00, 0x04, 0x00, 0x0e, 0x00, 0x00, 0x00, 0x18, 0x00, 0x00, 0x00,
  0x00, 0x00, 0x00, 0x08, 0x18, 0x00, 0x00, 0x00, 0x1c, 0x00, 0x00, 0x00,
  0x00, 0x00, 0x06, 0x00, 0x08, 0x00, 0x07, 0x00, 0x06, 0x00, 0x00, 0x00,
  0x00, 0x00, 0x00, 0x01, 0x01, 0x00, 0x00, 0x00, 0x07, 0x00, 0x00, 0x00,
  0x03, 0x00, 0x00, 0x00, 0x00, 0x00, 0x00, 0x00, 0x06, 0x00, 0x00, 0x00,
  0x05, 0x00, 0x00, 0x00, 0x01, 0x00, 0x00, 0x00, 0x0a, 0x00, 0x00, 0x00,
  0x01, 0x00, 0x00, 0x00, 0x00, 0x00, 0x00, 0x00, 0x0b, 0x00, 0x00, 0x00,
  0xc4, 0x04, 0x00, 0x00, 0x6c, 0x04, 0x00, 0x00, 0x18, 0x04, 0x00, 0x00,
  0xd8, 0x03, 0x00, 0x00, 0x9c, 0x03, 0x00, 0x00, 0x60, 0x03, 0x00, 0x00,
  0x0c, 0x03, 0x00, 0x00, 0x68, 0x02, 0x00, 0x00, 0x54, 0x01, 0x00, 0x00,
  0x60, 0x00, 0x00, 0x00, 0x04, 0x00, 0x00, 0x00, 0x7e, 0xfb, 0xff, 0xff,
  0x00, 0x00, 0x00, 0x01, 0x14, 0x00, 0x00, 0x00, 0x1c, 0x00, 0x00, 0x00,
  0x1c, 0x00, 0x00, 0x00, 0x0b, 0x00, 0x00, 0x00, 0x34, 0x00, 0x00, 0x00,
  0x02, 0x00, 0x00, 0x00, 0xff, 0xff, 0xff, 0xff, 0x04, 0x00, 0x00, 0x00,
  0x68, 0xfb, 0xff, 0xff, 0x1b, 0x00, 0x00, 0x00, 0x53, 0x74, 0x61, 0x74,
  0x65, 0x66, 0x75, 0x6c, 0x50, 0x61, 0x72, 0x74, 0x69, 0x74, 0x69, 0x6f,
  0x6e, 0x65, 0x64, 0x43, 0x61, 0x6c, 0x6c, 0x5f, 0x31, 0x3a, 0x30, 0x00,
  0x02, 0x00, 0x00, 0x00, 0x01, 0x00, 0x00, 0x00, 0x04, 0x00, 0x00, 0x00,
  0xd6, 0xfb, 0xff, 0xff, 0x00, 0x00, 0x00, 0x01, 0x14, 0x00, 0x00, 0x00,
  0x1c, 0x00, 0x00, 0x00, 0x1c, 0x00, 0x00, 0x00, 0x0a, 0x00, 0x00, 0x00,
  0xcc, 0x00, 0x00, 0x00, 0x02, 0x00, 0x00, 0x00, 0xff, 0xff, 0xff, 0xff,
  0x04, 0x00, 0x00, 0x00, 0xc0, 0xfb, 0xff, 0xff, 0xb2, 0x00, 0x00, 0x00,
  0x73, 0x65, 0x71, 0x75, 0x65, 0x6e, 0x74, 0x69, 0x61, 0x6c, 0x5f, 0x31,
  0x33, 0x5f, 0x31, 0x2f, 0x62, 0x61, 0x74, 0x63, 0x68, 0x5f, 0x6e, 0x6f,
  0x72, 0x6d, 0x61, 0x6c, 0x69, 0x7a, 0x61, 0x74, 0x69, 0x6f, 0x6e, 0x5f,
  0x33, 0x34, 0x5f, 0x31, 0x2f, 0x62, 0x61, 0x74, 0x63, 0x68, 0x6e, 0x6f,
  0x72, 0x6d, 0x2f, 0x6d, 0x75, 0x6c, 0x5f, 0x31, 0x3b, 0x73, 0x65, 0x71,
  0x75, 0x65, 0x6e, 0x74, 0x69, 0x61, 0x6c, 0x5f, 0x31, 0x33, 0x5f, 0x31,
  0x2f, 0x62, 0x61, 0x74, 0x63, 0x68, 0x5f, 0x6e, 0x6f, 0x72, 0x6d, 0x61,
  0x6c, 0x69, 0x7a, 0x61, 0x74, 0x69, 0x6f, 0x6e, 0x5f, 0x33, 0x34, 0x5f,
  0x31, 0x2f, 0x62, 0x61, 0x74, 0x63, 0x68, 0x6e, 0x6f, 0x72, 0x6d, 0x2f,
  0x61, 0x64, 0x64, 0x5f, 0x31, 0x3b, 0x73, 0x65, 0x71, 0x75, 0x65, 0x6e,
  0x74, 0x69, 0x61, 0x6c, 0x5f, 0x31, 0x33, 0x5f, 0x31, 0x2f, 0x64, 0x65,
  0x6e, 0x73, 0x65, 0x5f, 0x34, 0x38, 0x5f, 0x31, 0x2f, 0x4d, 0x61, 0x74,
  0x4d, 0x75, 0x6c, 0x3b, 0x73, 0x65, 0x71, 0x75, 0x65, 0x6e, 0x74, 0x69,
  0x61, 0x6c, 0x5f, 0x31, 0x33, 0x5f, 0x31, 0x2f, 0x64, 0x65, 0x6e, 0x73,
  0x65, 0x5f, 0x34, 0x38, 0x5f, 0x31, 0x2f, 0x41, 0x64, 0x64, 0x00, 0x00,
  0x02, 0x00, 0x00, 0x00, 0x01, 0x00, 0x00, 0x00, 0x04, 0x00, 0x00, 0x00,
  0xc6, 0xfc, 0xff, 0xff, 0x00, 0x00, 0x00, 0x01, 0x14, 0x00, 0x00, 0x00,
  0x1c, 0x00, 0x00, 0x00, 0x1c, 0x00, 0x00, 0x00, 0x09, 0x00, 0x00, 0x00,
  0xec, 0x00, 0x00, 0x00, 0x02, 0x00, 0x00, 0x00, 0xff, 0xff, 0xff, 0xff,
  0x20, 0x00, 0x00, 0x00, 0xb0, 0xfc, 0xff, 0xff, 0xd2, 0x00, 0x00, 0x00,
  0x73, 0x65, 0x71, 0x75, 0x65, 0x6e, 0x74, 0x69, 0x61, 0x6c, 0x5f, 0x31,
  0x33, 0x5f, 0x31, 0x2f, 0x62, 0x61, 0x74, 0x63, 0x68, 0x5f, 0x6e, 0x6f,
  0x72, 0x6d, 0x61, 0x6c, 0x69, 0x7a, 0x61, 0x74, 0x69, 0x6f, 0x6e, 0x5f,
  0x33, 0x33, 0x5f, 0x31, 0x2f, 0x62, 0x61, 0x74, 0x63, 0x68, 0x6e, 0x6f,
  0x72, 0x6d, 0x2f, 0x6d, 0x75, 0x6c, 0x5f, 0x31, 0x3b, 0x73, 0x65, 0x71,
  0x75, 0x65, 0x6e, 0x74, 0x69, 0x61, 0x6c, 0x5f, 0x31, 0x33, 0x5f, 0x31,
  0x2f, 0x62, 0x61, 0x74, 0x63, 0x68, 0x5f, 0x6e, 0x6f, 0x72, 0x6d, 0x61,
  0x6c, 0x69, 0x7a, 0x61, 0x74, 0x69, 0x6f, 0x6e, 0x5f, 0x33, 0x33, 0x5f,
  0x31, 0x2f, 0x62, 0x61, 0x74, 0x63, 0x68, 0x6e, 0x6f, 0x72, 0x6d, 0x2f,
  0x61, 0x64, 0x64, 0x5f, 0x31, 0x3b, 0x73, 0x65, 0x71, 0x75, 0x65, 0x6e,
  0x74, 0x69, 0x61, 0x6c, 0x5f, 0x31, 0x33, 0x5f, 0x31, 0x2f, 0x64, 0x65,
  0x6e, 0x73, 0x65, 0x5f, 0x34, 0x37, 0x5f, 0x31, 0x2f, 0x4d, 0x61, 0x74,
  0x4d, 0x75, 0x6c, 0x3b, 0x73, 0x65, 0x71, 0x75, 0x65, 0x6e, 0x74, 0x69,
  0x61, 0x6c, 0x5f, 0x31, 0x33, 0x5f, 0x31, 0x2f, 0x64, 0x65, 0x6e, 0x73,
  0x65, 0x5f, 0x34, 0x37, 0x5f, 0x31, 0x2f, 0x52, 0x65, 0x6c, 0x75, 0x3b,
  0x73, 0x65, 0x71, 0x75, 0x65, 0x6e, 0x74, 0x69, 0x61, 0x6c, 0x5f, 0x31,
  0x33, 0x5f, 0x31, 0x2f, 0x64, 0x65, 0x6e, 0x73, 0x65, 0x5f, 0x34, 0x37,
  0x5f, 0x31, 0x2f, 0x41, 0x64, 0x64, 0x00, 0x00, 0x02, 0x00, 0x00, 0x00,
  0x01, 0x00, 0x00, 0x00, 0x20, 0x00, 0x00, 0x00, 0xd6, 0xfd, 0xff, 0xff,
  0x00, 0x00, 0x00, 0x01, 0x14, 0x00, 0x00, 0x00, 0x1c, 0x00, 0x00, 0x00,
  0x1c, 0x00, 0x00, 0x00, 0x08, 0x00, 0x00, 0x00, 0x7c, 0x00, 0x00, 0x00,
  0x02, 0x00, 0x00, 0x00, 0xff, 0xff, 0xff, 0xff, 0x40, 0x00, 0x00, 0x00,
  0xc0, 0xfd, 0xff, 0xff, 0x60, 0x00, 0x00, 0x00, 0x73, 0x65, 0x71, 0x75,
  0x65, 0x6e, 0x74, 0x69, 0x61, 0x6c, 0x5f, 0x31, 0x33, 0x5f, 0x31, 0x2f,
  0x64, 0x65, 0x6e, 0x73, 0x65, 0x5f, 0x34, 0x36, 0x5f, 0x31, 0x2f, 0x4d,
  0x61, 0x74, 0x4d, 0x75, 0x6c, 0x3b, 0x73, 0x65, 0x71, 0x75, 0x65, 0x6e,
  0x74, 0x69, 0x61, 0x6c, 0x5f, 0x31, 0x33, 0x5f, 0x31, 0x2f, 0x64, 0x65,
  0x6e, 0x73, 0x65, 0x5f, 0x34, 0x36, 0x5f, 0x31, 0x2f, 0x52, 0x65, 0x6c,
  0x75, 0x3b, 0x73, 0x65, 0x71, 0x75, 0x65, 0x6e, 0x74, 0x69, 0x61, 0x6c,
  0x5f, 0x31, 0x33, 0x5f, 0x31, 0x2f, 0x64, 0x65, 0x6e, 0x73, 0x65, 0x5f,
  0x34, 0x36, 0x5f, 0x31, 0x2f, 0x41, 0x64, 0x64, 0x00, 0x00, 0x00, 0x00,
  0x02, 0x00, 0x00, 0x00, 0x01, 0x00, 0x00, 0x00, 0x40, 0x00, 0x00, 0x00,
  0xca, 0xfe, 0xff, 0xff, 0x00, 0x00, 0x00, 0x01, 0x10, 0x00, 0x00, 0x00,
  0x10, 0x00, 0x00, 0x00, 0x07, 0x00, 0x00, 0x00, 0x30, 0x00, 0x00, 0x00,
  0x50, 0xfe, 0xff, 0xff, 0x21, 0x00, 0x00, 0x00, 0x73, 0x65, 0x71, 0x75,
  0x65, 0x6e, 0x74, 0x69, 0x61, 0x6c, 0x5f, 0x31, 0x33, 0x5f, 0x31, 0x2f,
  0x64, 0x65, 0x6e, 0x73, 0x65, 0x5f, 0x34, 0x36, 0x5f, 0x31, 0x2f, 0x4d,
  0x61, 0x74, 0x4d, 0x75, 0x6c, 0x00, 0x00, 0x00, 0x02, 0x00, 0x00, 0x00,
  0x40, 0x00, 0x00, 0x00, 0x05, 0x00, 0x00, 0x00, 0x1a, 0xff, 0xff, 0xff,
  0x00, 0x00, 0x00, 0x01, 0x10, 0x00, 0x00, 0x00, 0x10, 0x00, 0x00, 0x00,
  0x06, 0x00, 0x00, 0x00, 0x1c, 0x00, 0x00, 0x00, 0xa0, 0xfe, 0xff, 0xff,
  0x0f, 0x00, 0x00, 0x00, 0x61, 0x72, 0x69, 0x74, 0x68, 0x2e, 0x63, 0x6f,
  0x6e, 0x73, 0x74, 0x61, 0x6e, 0x74, 0x34, 0x00, 0x01, 0x00, 0x00, 0x00,
  0x40, 0x00, 0x00, 0x00, 0x52, 0xff, 0xff, 0xff, 0x00, 0x00, 0x00, 0x01,
  0x10, 0x00, 0x00, 0x00, 0x10, 0x00, 0x00, 0x00, 0x05, 0x00, 0x00, 0x00,
  0x1c, 0x00, 0x00, 0x00, 0xd8, 0xfe, 0xff, 0xff, 0x0f, 0x00, 0x00, 0x00,
  0x61, 0x72, 0x69, 0x74, 0x68, 0x2e, 0x63, 0x6f, 0x6e, 0x73, 0x74, 0x61,
  0x6e, 0x74, 0x33, 0x00, 0x01, 0x00, 0x00, 0x00, 0x20, 0x00, 0x00, 0x00,
  0x8a, 0xff, 0xff, 0xff, 0x00, 0x00, 0x00, 0x01, 0x10, 0x00, 0x00, 0x00,
  0x10, 0x00, 0x00, 0x00, 0x04, 0x00, 0x00, 0x00, 0x1c, 0x00, 0x00, 0x00,
  0x10, 0xff, 0xff, 0xff, 0x0f, 0x00, 0x00, 0x00, 0x61, 0x72, 0x69, 0x74,
  0x68, 0x2e, 0x63, 0x6f, 0x6e, 0x73, 0x74, 0x61, 0x6e, 0x74, 0x32, 0x00,
  0x02, 0x00, 0x00, 0x00, 0x20, 0x00, 0x00, 0x00, 0x40, 0x00, 0x00, 0x00,
  0xc6, 0xff, 0xff, 0xff, 0x00, 0x00, 0x00, 0x01, 0x10, 0x00, 0x00, 0x00,
  0x10, 0x00, 0x00, 0x00, 0x03, 0x00, 0x00, 0x00, 0x1c, 0x00, 0x00, 0x00,
  0x4c, 0xff, 0xff, 0xff, 0x0f, 0x00, 0x00, 0x00, 0x61, 0x72, 0x69, 0x74,
  0x68, 0x2e, 0x63, 0x6f, 0x6e, 0x73, 0x74, 0x61, 0x6e, 0x74, 0x31, 0x00,
  0x01, 0x00, 0x00, 0x00, 0x04, 0x00, 0x00, 0x00, 0x00, 0x00, 0x16, 0x00,
  0x18, 0x00, 0x14, 0x00, 0x00, 0x00, 0x10, 0x00, 0x0c, 0x00, 0x08, 0x00,
  0x00, 0x00, 0x00, 0x00, 0x00, 0x00, 0x07, 0x00, 0x16, 0x00, 0x00, 0x00,
  0x00, 0x00, 0x00, 0x01, 0x10, 0x00, 0x00, 0x00, 0x10, 0x00, 0x00, 0x00,
  0x02, 0x00, 0x00, 0x00, 0x1c, 0x00, 0x00, 0x00, 0x9c, 0xff, 0xff, 0xff,
  0x0e, 0x00, 0x00, 0x00, 0x61, 0x72, 0x69, 0x74, 0x68, 0x2e, 0x63, 0x6f,
  0x6e, 0x73, 0x74, 0x61, 0x6e, 0x74, 0x00, 0x00, 0x02, 0x00, 0x00, 0x00,
  0x04, 0x00, 0x00, 0x00, 0x20, 0x00, 0x00, 0x00, 0x00, 0x00, 0x16, 0x00,
  0x1c, 0x00, 0x18, 0x00, 0x00, 0x00, 0x14, 0x00, 0x10, 0x00, 0x0c, 0x00,
  0x00, 0x00, 0x00, 0x00, 0x08, 0x00, 0x07, 0x00, 0x16, 0x00, 0x00, 0x00,
  0x00, 0x00, 0x00, 0x01, 0x14, 0x00, 0x00, 0x00, 0x20, 0x00, 0x00, 0x00,
  0x20, 0x00, 0x00, 0x00, 0x01, 0x00, 0x00, 0x00, 0x40, 0x00, 0x00, 0x00,
  0x02, 0x00, 0x00, 0x00, 0xff, 0xff, 0xff, 0xff, 0x05, 0x00, 0x00, 0x00,
  0x04, 0x00, 0x04, 0x00, 0x04, 0x00, 0x00, 0x00, 0x22, 0x00, 0x00, 0x00,
  0x73, 0x65, 0x72, 0x76, 0x69, 0x6e, 0x67, 0x5f, 0x64, 0x65, 0x66, 0x61,
  0x75, 0x6c, 0x74, 0x5f, 0x6b, 0x65, 0x72, 0x61, 0x73, 0x5f, 0x74, 0x65,
  0x6e, 0x73, 0x6f, 0x72, 0x5f, 0x31, 0x32, 0x35, 0x3a, 0x30, 0x00, 0x00,
  0x02, 0x00, 0x00, 0x00, 0x01, 0x00, 0x00, 0x00, 0x05, 0x00, 0x00, 0x00,
  0x02, 0x00, 0x00, 0x00, 0x20, 0x00, 0x00, 0x00, 0x04, 0x00, 0x00, 0x00,
  0xf4, 0xff, 0xff, 0xff, 0x19, 0x00, 0x00, 0x00, 0x00, 0x00, 0x00, 0x19,
  0x0c, 0x00, 0x0c, 0x00, 0x0b, 0x00, 0x00, 0x00, 0x00, 0x00, 0x04, 0x00,
  0x0c, 0x00, 0x00, 0x00, 0x09, 0x00, 0x00, 0x00, 0x00, 0x00, 0x00, 0x09
};
unsigned int model_feedforward_tflite_len = 12696;
